j~ysqoOygksRe}`dlkjMucmu~zfObq|fǞUyxXKTjRY~}uay^|x}gcc@\}zCifUyxZsi]ESmMhKgt~zg^eGI`oÜxsxY{wsU[pydqonck|~gJVnOg\HbgxnloYZWec|w@owp]xO~unjvmĳtkuwuw~H`q}qKjdpzmSQlfчgypxgeVp~\gtenqjvry}VadRTtgu@ymcgwvRgmers{ufh{qcK~jdpVnZuv}ws`JiSMre|e|ws_uPfyw\ttppLsrukVfj|rcketllcrryhuos_ifxxRv}sSjjZdCtynxX}|meth^gfwxP=^_puxoXwp~kIvWuszs[tvnuţvststE}fyij~~r^gyMnqrcz{}gvrBqgwjjj}V|J9qXxeVZ}v{fn{H^~o{nrg}iz|{of`Xwske{Ĉrkdb=uZo{jvKujxooBouStdoZxEVurmn^Rxzmby]}ClKsd|oewzn_xzrxprZ~wdzm}xcxo^y|p]F~p͡f^}PPb}~dn{hOtdzv|`myu{bMY|j|ktv|PvRUodncmslew~bjztшfuoqlsqn\oz{akrktnurfyuk~r}fk{qq{Zeau{oWhLq˒rFq^SoPUOdrvtS|nhugRzaql}|kyyb~wx(vjzFcmsayykmq7gm_bȦmsybp}jz]yf~8x[u_lkMx}polix{Mxt£peJ}RsyynlqYmwo{x{|rsivhpPiW{z?zzxrnPdkiqljqlaorPʑXvlotrq}|`_}~xpntiyoezzyfo^t[wis~w{kotltO|zg`{ryFqp{q^o~č~urtxsPoIz_~wUz^}suNB{W|VwytYI}wwv~}qcs|~hzvVwuspsdtg^`szb;dmmxePub{du}]tknUYrkzɐ~]e|^gy~}ht_cmvolgu}wU}sZ|eRyzdvxsSZswuSfxty؞csrjt~rvwgU|wOzfwgKi|wumovJafUirs>`{rpV|eMnzuwKknickiwt[u|}J{h(~||Q}r{RpjliiijRE[zPWnnRJn{qy}iFqG}pst||qukZ{{]O^r^]kgyWhSz<s{pR^{qĚy~\kMy~ZaaWnGoZtfqgo}Ho̚pcTgOoks[rkm`|Xd{ly@uagurmvps}wafczdEs={Ozom{c}syd`fVrRXO{wymcdv|Q~rkfs|oeC]l}moYqvckExw{Kahs|}IUATh~~eyQUlfo}njrspuxirf}ttGTjyHkzlvNJz|i`z|iz[{{enW_{trbpiejy{[~^r`lmoxjdsuguptb{vcXnjumasp\qcS`xf`\fVy{|PbMbdl{ۉ]Z}jobi_`yiXogssuqrejd|kTQy}{\T`g}]ts_YovRkuwml[NURi~[pXgdufu<mwp|rpry{cK}wa`u{Y|6|}}~o|fĦugh{hl_hudyeueklYX[poxqpfekxygt`tkm|zu3n|~hȚxx\mZ}agu_k[V`ddro\|}e}_`imcB΂iybcyt{uthztVAmtW[xwb_qr_p|}]zekbl~hytdom{ei}lo[၍{H\`X`b`mssywSxqibkodurtb^evulhgBxxYnzbcr_Wznc}JtwXnsvcba}yqsubHznie~jevobyzxddwm~pnMyNv_zkP^`saofet~ny\nwgwtlkzkgitYjp;cqotpwf{aUxtkOzuvqwcc|KKǵ_|oxxbgrw|gkhrbei|skwUi~oxwg]|Ty~\hogsSycmgIxOmsrz-tafeaY|nfL~v|tt`YaWz|gyk[Tfy}}j|vy_}ynxy3^y瞔m}h~dxeerxŚXXal`y\zsQ`ecry}tjrwe]~qgwcl~thr^lU{mnWoaQ]ervSvZ_ygmpYiyxrwP{|poo_piqKcfodf^e}Dkfz^strpshzZ}xse|bYprar^ibhn~~zqj^{}z{vtZ|tjr\Wup}L{uog||ry{kuyRz|~k{ew]ehrryZuPhta~lYVur4vqjnptwbs`V5Ux{_x8ofpF_hv_tijtƏkaĉvk|avyo\qshlr}x{xsF\cs\|~rmdr[qLaR{hj_g|mmlmeyYzwZlv}?Qstgd?yshqimLmgcdeun|rjxl_Dw~neuRhyZrskKr\7j{{tuTH0Tty{vj}r}e|uZ~n}n}U^|du}]tO~|J~jX[CZiNxzIXtqlg|hYt}|__fmbrjye{hqlcÄ<na5ybaBLv~^D{|ltwr}m}Ihtklg;f[TxqSxry}wranmnubQx˦seshwCwt^~yy{urw{SWrrGXwjd~|Fans?~bLxt|wSxX~xMThy\~byemfe`UmXH|Xt~Y}bsge}`ovn{qnfbwcwl]tvV`y{ҋc{lXrz=Yo|nxpuu_oKx]zeşeppydLh{}{p~kr7`Q{[u|vnGdaPp\tdd\{iiy{XSc{lR^{]wMYZ~xez}rfqS^z]Zxmo{jwJkpNrr\yyOQn}H|nK{`wh^Bu~Rztmose_gamssx~pir}i(hgYul~z|ope|t}dtcHw|wƎz{xhlUjuŐ[}ykkJFgfvgxez}jptafz{rkgrmkf[\ypxɚq[dbbk|emsrZ{H[J~}w^TzHzlIy}iwyx>\ɀjF{WŘwqvgxwv}ytvqKzjbrWktNjuhi]~{:{ckicf]ve{l|e|M~yp|mn|zf}}tpwgɉgsboYVrhVma}Ysqypzp{~in{c^|vVwU}AwF;yiUuXaVwNaftcmlşftjujjXpe~;{zkxaursfPpfd^~pvxywxcsGn~tztvdwU|ff_=zbxt|~`l]}^l\;v{}zs~{ym`jpirnbyzrahlyi{mWlus~q^nlIzgyIeBto~xuAK}{lmfg`̵`|lrhztpmev?[xkpzw^p}}prHWAmhaKdCmn@}{{{zaremx[oqS{lcOuqijkq-pk`ubkNwy-ft:on}zzvtm|ma{fWxbz}Fw]`_|Rz~AbGc{w}qN{IjlBXXpitRrz\k{2xlbxefinpz|qjPmljgtjfk|WkwqOk{rztYypK{|t^bxpq^yqytvuhmZ]}b^~^uroOk^xwrr{|\kueslz~avXnGy_ngp̂zwz]f|}~sgSmbtz|sjAtt~ornrn__{y]Qs}hz~\]pJityz{qio>[oq~cfT}S]~ƛR{yck~K`}ozv^xi`ilw||uszzqQ}y_rUfQ|k]phgv\to=}{t\s\q^iZuUOyLbpv}gi~_|paxjfpbhd{@jfubQyyay?DXyo[q{Ow}ok|ouwd|yMm{ztiNe}~cxKWqgv|_oypsrs,osdwyvws{pw`zz^qVujyHwhrp|qozezǭ~xsy{|rtj<uuy~scvubwgsyTWňlm|~yzoG\Nzdp^qowwKiAQ{{Ywjgs}y{oKo|PXqGt\vxwWpdKuH{lojekxjyOQpc{Nk·uvU~{npy|o}FyozƖahdtt`{PHacjuTavoSd`{qrwtz~jl{crmdo`dY}el[~cf~pb{}x|gg|LXizVnqpqzytvWV~VZteYqlpY{~izqn{kAxxM{O{li{{ÖwZ|oV|iwv}mfzoŘplxnN{_y\xgyas}gWnPm||_dis~{tn}^|jri}ycy~r}qC~mpxwlMxmjo{Ugn|uWsvwqrwUreu~7myZTzgW=`|awUoyy\{pty~wP|xw|`fTfZYm|n{hqZwr{XcN~Tw[~zyqtpRXlsv:IdxCp{pcppipmi_lUvpphOvslyxYtcbG\mbRkrj]kbYmU^\cu8oBas{|Vc[~spZxSlsxlpozj~nz_v~oxdZLyjR|ms|zWzoz`{d{nw~vLbxoEtzayxsWu]jywQ}k}vbm}}|djqRImxgoUjz~\N{DQbwWwsZW}zEwpXrQssd}ʟyyO\~g^Lgqsywo{ii}]v~{dy]jxvwd|kvzS|ch[S}^Ythӓ~DUuUy^ylwý}kkbxlfǅutuk[n|\r~Szo]V}ȞU{?zsOhznjaLav~s|slf̋gym~_Ru}yzYiVzx~ikcdhymaspcpJtt͵oao}hm{g:\|KqA{x~wmZB~}lup{~{k[tkqv|guv_yfojnotgkhbT]tUqn]y}iyP}8|hdkvurtoervukf^ldnYh|zqhuRRk{qpzVsx|nxt|cQvey}tuajSgwxywhgkcwS|ztjZjpz`s?~mqxp_}mbymzhtdz{h|yxby~ciqbkxk_my\vHNxutk[IRO}Ħ=a[egwlxfwcd_hEo`^wjIfcWōEym4wPkhxUdr}ěrije]ZYo|z`j)v|yhort~lMz`kqvp}~_\qnpr}tv}~~vtL{qt~rbt~vHmgkb{rdz{w|auhkfqnxrc}||By[~y^wFW_egr˔gmTeZvwHSfwk^]\c)mRBey~IlpZn}cwl_Zxqwv`qqhy{newyovrɣj{fnirna{xrubtwTdpu||d|xnufjvnfm^Kg^xewZZly~izcztJhsn}XÃr{~\vzlPzcyux@Y]\tqObwjdkhu[lXkeW8n~j`N|gwsYgszyxSzt}xjEdVonrYbfgLoolpwIxnXs~wDx|o|uN}|{px<nloZcxͮrq}vNQX{_]km{jQSme}t~suԫZvdut~[x~zzmTp~i]md`fwitx^gj[}r;_h.ynvfoˈ_hrpN{|}wViMkxSqmXvjjubmъ;p{rz}w|<y]|hylkn^|si{hw\}ax|}af{joNk|xablHktyi}TxŕPo_\hzOsy}d{quuczp~ntVOwun^hdhjzkknaSyOdssjtYcnUazs~w~boVz}lcqYkg7[n^p]f_|]ggf`|rrsXc}y]t\tkGgwVk|[{kfcjtine[Wr_`~Zfl_}|sw|w~qmgsgmyaayys|]hU}nk]Y~t|In]lp{k}tsmua`wfreqj}sxxr`lxk`[ivnwYrgyuyo\yqsfl|bboqEsyr{u[kzy}}hoeumWYhtoiNbvi]Wyhoxe}X\jtnPxyIokw]fkq{bnpY[v~OwXFtw;tag{mVvpirglV_ys`_{~wz}snx_tZmzuemocucw~smVggZwwTpqpvwSdtellӨwuyul1HfNylv|j\Rtx]uyzlgkvvyf}_wuadzs^Zuhaq_`cR{iSwfdۅyzxlr|bx|~Gme`Nvz~toFgz~ybzvwY<Vo`x~~x}u~iwuLHxb^uo`zx}Ygxd@{Zypspzxi~~Lm|awlw}oueN{oV}wvFhjs^hnopzI~UhZxqA]e^OjjssHdNpvckjv~lhx[Q{vhfËrobޛs]Tjmc~tUzLNFzR{klhoTuyxaycs{xAcimOniwxshxsvqk^pֻg]z}f~ruŊOpҙXrv|xirxqs~qstdolkc[dV~fVus}lc~av{nzzyHVmiltg_xgp,]l~mv\~f`d_~~xuze}m`stptwunsbwIa{msXuY}7fqu}yxnt|v~By}iTo{b~\yeM}{tEtEiX]8[ʛy{cr}ggjivyY|dpu~VRnrWsXg`u[xxazw4iqou`xς[V}f}yeouXyW~`ZkNmY~]tqmjyqwJ|z|}{~kadlE\w}Pn?z2{f|~z_fGstyIrdYyPosVsuxz\{TS}9{qRo|eLnk+XPw|c^jGzqhdysGcdvvolvY}`xmjzrflrbsbpoj}}dM}L[{r]v~qage~\eKviihDHEozqM|s?wt~|nwvX{anp_|yiy{rqVpXxvjIkuWz\sqvdp{sydhmVjG{k{}pwcxpvgryilIqYjszu~@Q_o{xƢgj|V}p|jeqyubaczkhuYȌthipkoR}iWew`vm{Tm[}HpQnsouz]U|qsppQgxtqog~fk~҈zqrnareQmxxyp_uo{|dq~nrui}~spc}ivJ~evysyԋwTrcexnplG|`}{Wi_w|LXgdmc|gd|ow[klurg^Zvo|rrbnZiysiX[uxd_y|_KՍb[dnaqvlyk]k]Äl{soijcvxqlhxRhq}un_P|yezpr|ig~Dzqoaap~fmkhtm̈okSu}tjLsrgIez|dqrtÊ{{aXurk~|chluoxsi{f|tk|f~lgqx~xwsTn_Ylvt|U|eQXrk|Wdoxi[uǓzvxUykozc|}}]cdkshjqtkzypVtZbip_lxZkO{y|cˇevzxlpqms_jzxywriugJ|HeemejhEjrOoqyPx_\nk^bs}fnxow^[cvbZtvdshqH~yqozkc]vysfOd5{t~|7Yiuf|zh|ulhx{hhts[zozj`\~p]yk̙R\zoCyzsp]{gRew~w`m3qY_sxWG^~DÁLvoxr`twaxm>bZ}QWzZ_`|~orqjj~hpfdbjvdvwube{v}pXyymxpRF~|v]az^8yJ|g|uj]v`Xf{cpIpPmvyQnpUcaP|\[{CjقZsinf{Q^bg_rYvQ|QeyPP~|[Ȗyczwmh[~qpY}de|~|kSez|ōx`fltwؑLmpoeynq]ri{jRzFzkdQjjZw|`qgi}M7dk`Pm\Ktnixw؂]<qj}\~prfrxVjvsK_vis_{h{~Xk+vvaLTw{o_lm`ωao|bákvor`qfenn|{Ơ~tmuq}CljFhyxkt6yL|]|rsac@Gfrzpw~[oq{^{}A^Utt|jsswi{hymVuf|ns}}}D]rx`OivzgoQjWEPclvXjmU-7Xwyprfphitxpotpzb{p^LvLeep~xcjGzqO{u^eQsuq~h~zz^Rgdn؇foutmHiws{hkY]jmizui`{~Ecpozrycr|SihZczph_^sSG]x.ۊdNYwr}TvckNjIj\{SupzMş|wʍxhnzmyx]m:}mlu~~|b}Dso}]mTZnyiZ||SKrZ~_Wd{spJ~kdcgn^ukc~xZ]~xe^Uq{A|gupzbhHiD\gurltQ~kpySS^pVt`kRfWibznlnpʄx{U.oɘvOXhs]wvojv~mlrXnPn[si}5c`xY}X|sqtzqiȈcZ@jQ$yeha~rdjrmFvgYyv~yisq[|Vsestjh{hy^dwg{_}chdn~fh[aƠmny{x{_wi{{dzo{ylubj[xriQHhԝsoyvabmFt`I{z{rO~|^fnxUvi`eUrvtzPNym{ny_rprq[v{gV[T}cTSUcwlWs~qtflobsz[dxdv<8sYpphFtMmycmkv|eyhx;poWBS[mghqnj{xRtm}OX~pRQz}mplj|mw}fGptiE\qes{cnvqJ}mg{t}Tzxp@w_WPBϒA@ydQ,}z}WAkzÏutqcrsjP\Siqqxa`z{kpxSV}moqslvUz[ZXhX|mWmjr{tse~usgVxqzylbedLgg~i~jpr{l|ron~j{or}tnx~}c}rrPZSv|Xeen~ejYli^W~wXj|azumtzuƂtњjh~m@n_}hQZyvsbcrcnnnjhhxwsj|{ixOFMc}L[wkͅYp|Vi|ovvTyps~[qhaacwd[p~gyYflSzydg}\z{lKu~~{y\lzypjohq[:ixnh[ZկR]dwgzQ~|r|Ua_|i{q|rruzjJT`Qsm{|q~t~oT{_|qx}yMDnZo|wxry[winth}owvmyvhxNf|elexyznzrzsjmea}`u^mphy`w|\sōuVw}qycfXzuqvFJPtriqktTo}muqzvsevDWhcp}XinBWxlrefxqr^gd̓mGMSx~{{p}fxxxghYxz}pMd{@ulgr]dgedmvwtsl]tuzð}Ehjtl[^in=snV̎:WsbPkQuhzn|t|vFpLUfrv|f|ol`nnazlooraft|_e~^nkkzOoukjsԢkwwho}lvYo~xs]zznW\pevZt\uThUdviubwoxuT<vo}zri\tYhfPDw{mpYwoamysybxxm}xmg{u|vRd_WqXipkbkmhyymkpm]lnvv^V}{JfS[fkto|tfhslIT{|v}cZZYruƭrspYvup~uzhp{jtz4po`jyy]a~btOnlWto^}y_tqvmvaoZ~zt}iMe|\put}]cz[zwcz;ze`amg]a\miTf]tQx~}txjWo^vy``g|hzWvhftllRtP\@~koawMlrm~Ȃ|gx[bhw_qsXfGpxtv|Jlphuk\Ss|gIjWhYxgDhpa}x[cU~yi~_zi{RXnetqkI|tskhMkWxn~||cmuwW{j=hwqsjjVyxbaRzizZhswr|ydtunvsvbx_baqoxv,r^[q}gdS}~r]~pw|TasUzdyNm]_Rqsu}|fxp}au}<uPS~^xRgjGowKfdxpVypS~tqWzàbzwqSŢwotyvl`wqxrP\jf]խJke]kNbz^d^xkhwrs~aJHxQtXmp_}ih``m[Mt{fmt|KrZ|r|YhbY\sozzspǍ`qsr]tZatd`mkct=nqr^wvexsyqyiЮrp+cwzpp~yysktk{qugٛsvƕq|eerptTrqyrfpxjtx[}r{gUh_{jz}]>|RvWarWeYu]z^{n}eE^oidŋfqmvtaa}a_umn[[zu}xfq~rie|Xw~in]sj}MojR[u_`wng]ukfo~hZ{t{rwZsxuwvolyimhtxnklo^NxvhS3tnwwg`SurtM_ƙeUYuqvndar}XzydfSwZngu~m\ykuN~xs}z]8wlodv{OdhnrfsurXvhdgmm|xyydqU}qvn`Wy{{okyi7Q_{iX[ws~py|_rfsL|r|{yZwSj}t|v|~[s|dusckzu|RQq]buqvy{qb_y~uFv_}[imssƺc~2t{XqHboxyd{zb|v}lt}no}u|_@|mnz^nX}cyyjgxcqU^cw\`zgdc~TFfbp`hh{vYt~u|Tvtdpbomr_brx~tl]qy~IziuKdtgkhcz})mnoŤj}o|Iojl[Ycř}j^k_s{qrX4a~d~wcwqxoRpIm_uPUiVHlR?\jSuvTjgwsoy{TzѯBxkRd]}f[S[g@k`pYuaklx`cavYĪgpTCu|vPTwvx\zkȄIko[NIwmetx{{o\owkLkmX{`zz}~up{yW^[si~_}syYVywizkWB~\|f[sCfvT~X|?seÕhivFo\bOavlj}X8its|eCK^qij_|E|hjq~miqh_{^fYawxu\lVwm}vyPqmJTxfP{Io^WsIz}Vmwyy^ylq__j}vfqPXpQsbAgj^HzPaTnngVwZjDVxpx|{}Ou[uo^gks{z̦vw[yYtvЈ}{rmw}nc{kcfq^i`_UZW^Kcuss$u{mtn>lw|ni}MckezISlacs|{lebwgp^zdkzYz{cipoYkb|~{nqdhcojUpu|t]q<ucQNs}jT;sv|wmzfWu\׀_peR|Ciycp|YgS~̃Gm[jUS{jbzPw~iEi[w\r\gWc}}wgc~za|r{Vdp0`zRvnuxvgsQ}woIttr^s;u||xNucGr\~Thb~[pkuWRevGWCmmz_~qytvb{QxnhvVzR@tjDbxx~s|zzR{~[mL~eca}s[ObMzqtai{_~njTSy`i_{pumjhftmjJuu~^puUenpׁ[{r|ze}tzf1}ss|f"<ttǀ[Rfg}wK}R}_|Wo\ohJadx~<uV`rx\Sf~ozUXo~`\{khig}nnkd^nd{vqtn~}]hk_{vqqqKP{bpqz~}u{n}|bnqroyrus{Shgtlzx{vZet[}pZWm|uDX{v}f\nvbIsdjxTVrco'zgz{~UEO}a:wHe}yNr}~diw|v}jzuY[~gx=|a}}gtuwR|^mqWΥQvrsh}Zv~Z^y~~eP]ssnlaYs|ne|T~vs[c{skjk`wkXtrwolywwxWrq{BT}{t}yz~u{syu`k]W*X~hW]vjq|n@hTeoboq{svTTr}t}arjmqzvkt|||tu~rwwXYc|xvu[uuvNZV{Hz{`c<|g~DYpgn{rdue}{{z͌eAUnm}ORivK^_odm{~Uecr~w~sXnUclnqnÆb~wfz䉙g|jvQcuGt~[JnqzzeqotVlakBhX^jg}}dmpk}zua|=vxcpni[Ezw_xyXaxzoem{xo^|tQPl{C[wp{rgnlbRTwvzjGeRvb{}o{nu]dsjUNll=twisihzV6rvpz\l`cŭyly{UkyTVw{ZY`llpKq~wlgd^IEwYbfWfmdZ{ϞyaU{no_zlrd[`JzveTz]uj+aQUhHzGsEtyo\^ons||v[QxykG|]SwzpviTx~fxoTvyw}okobZ|v_fvvrnrGuk{wn}hxexZbmdvSyphi\Ej{i}_riV{xn|sQnQ[x~do~lg}q\btŎ~Zea'sHkvyw}jāwmY|TmlTbmtbqvm}lpzcwrhfzbg|Ovwqt|wzq{s5˲|k\[tm`pwEopvtZ|t|xoxsay^zu{}eXouNXZuQJHyDwy^~;hGmtnkvcqnY|mma~|RhlNt|wVn}`gUa`jUNw~}jqwov]@}}f`zSmrt[eaTrq~\yx`yro@z{m~jtgr\^χpaiaewlodPQdiOrR\v{vkUǀmxNgxja~`gi~eVqT]zUfKqkx}wgc^Zk}~K|Zhs_w~vtft{xhcxs}`pwbxlly{`xe_~H}c|\hd|z_}Wʓiztv}y_|`mx_}=dg{hnPw}x{gkMhmrz8pD|O]hzelY{}\CiynxIzlrqQ_vdp^{ylkw{j{n}xfs{xgacLxjWiOp`{mYZu^FtYk]yxx~M~hubgfvo2bvt]k;ZWWdGvzW~5]NX|~Wlg\ourd|wrEUpb`]z̗q`y]pt~kXa}QSzzjsg8xuzvx7_Bqkwtnze_[wovRsX~{hmoHr_p{qqc>kJT[nzqp[udmh[icpF_h{XmkwX|utW~sue_wtqxVPzRzRwwo}m4D~sq{ǄWaN}U9~N`H~ixp9zoMd{beX~s{}n[{sukw|pyiVxic{{g{|Mowsiax`wlpwTrxZYbwo~bvvec[Hb`koYnZjgkpl~yhjDO?dihc_~dhld?}uy|mwVgrCxOZ`nemO{~etosliRh_ȋlu?X|rofi|]Ogfwza{}bkqrT}aolpuhnnggGj{lIbVۄw{wqYvY~arc|auDBs~bngibidw~zvhmU{i\o{txy{ulwszO|no~uwYl{|y_k\p{@\_l|jjU~k}@{w\qSuHnK\oeAsnrb|tl{z=uc{y^ArOmOzzr{O~mgjGFsq[_oqttumclA??lPhk|lm`VoswwynsctUuuxKwVl|^cHgXuevoppjvdjnlzB|?cb䛐~Z`nujhNlkOhstnqrg^Kw_yhnteh̑eqn}DytwəxSfntqotejUT}wYqB|\U~Mvs}|tHs~ispsvekl}ws}bq^r}\[{{ez_ehksnmxzimyJt.cgizc{LZvqsslrv}|[thbhoM~zx`l|erkev}jpwtvUy{^snfWz{DX^smk~u~ufn__utprgzzw`xeexmjůkWDaxhQeW{wqwY_jzjdi{Zuw{hvtp{k~_QuqL|Vv~}{hmfhv\_^[~shiYz|kf_\~\yuu\GilzUIlwhgM^|Jjz|RXjyktpzF˖~qwub~cd^w}u~pGjYrvbqqxsym[i`xjonr]:mtbcilTuu{nyuuw}~e\pmrpIqbr|ul}GϩaibgbY_^[w}s}_f}qfYRuyzo~ufynt`}ZmtzmqxYpg}wMtɌgğpjn~~xxuzyxjqf2rnY]Nffea|Tvjtc{^]Kx|Yd{r[tvzqylmim|i{xnk[jdj~@up}p^W~d~exp\~oJ~n\r{q~~yWJ~f^Y~viHi}jtukjdiwume{B^w[lnx|rQiqefH~l\~yewmujp|djckuq}{s\~yRqga͊YwoWrƧ`{TmRftj|n{^lrvRcdv]qhvjZIscen]{p\v|[{tz`r[|m{S|@lu|xl|wo_Xzw~eeed{bHYdhv|xRXfkVeoyMpig`yhqoYvbm|{[zxr\mdfu~cn^Yfb^gtcn?u´eqwsP[cمgRk̞trfzvoKa}YjZ^g[taf3`{f~u{tyiwxi[ylpo|sn|}rryxT}{yu~cg̀ffTq[mzgyY_}{|KdD}{d^Vk}je|[]TZotUippttkTiRy{N~x^rixixqqYo][|vcakdT]ªqlvdGu{VqtfVo{kkfibdm4zycsuVylzkoh[arfd~~gxv`{iixbasJvWeoUqfij}m;{jS`qew~yF^tvp{`|wdV\zA}npwPZoLzom`}_sXItd{Z`_wlH^rk^ldciz2fbos_sz}v`pn||utgnxj?ey~kctmhhql^vnǈxwra{ko~^\|byzj~qkTJa\nx[O{krptwz9Pxss{fgyrkfift|\nvPq`|KUrg|mxk`TLb>{ijkBXt}|gbs^~ӑ]uHË~v'vsyqHGWEoXxqeNekrl\xf{mor{s{Es\~olukswsrk}whqjRu2;fulao~iuxxQYzxEyvzAdot{[mk{ŕzjmlv~hrxqTctw~tst_j`z_g|gfmw~Yy·wx_Wac~hww_e\t`~nlrvH~rLizvYx~yƔfvqrNOoe}tf{VegltztecaqapzsgbJXxq||waxG{}Qjmw{qeixcoAxes`lr`n]U}[cuVs|xu^|d{z҅y{hxub~uzcgq|ts_CuU~hUNludmiq:pmSz~npyxwn^}rdel|nˊzVyY|unzzumrNPpCp{w~jT{Reor?_{SiCuvq]|i[;}{xzLmt`Qj^xqo~ahvy}{niGkxgczhmUcTwps|e{dpbnde}|psdwuk}|qvx~n}zqq]vr`o}zjX|{laxoYr\`mpLR|^_]yzK_pdvj]jvphuwgdtvwvhyg_ZohqL|dhR|`owpkkl/T}cvrrsL^rm~{ifdclDdvjsC[|x~{S~n^j]GTysyr{bvfltxdgr|urWlOTiT|oeyloz|hbbfmp^j}vʮfwpVRtaZd{}Q}}_gcmVRmzvfgQYtNyɗr~dakaahyq`r9czTmukkEtz]xEyXjjR}l{rgPzQZkIb|lt}wthx]tqd]xYsTkh{ihvhnv}_Tm[kfRyhbxȎfxgrczkdqhFcym|aSyxcqyc[y{uZB}~nxswPdzours}`3~zY{cz~qZYx\s~}q{lU|Ix}s}eltxk`wPy[Z|^|Swvi}X}]{pxrtv~qlx{TxOsk^d|Ywfy{aoTmxe}ct~b؃iaglxCwiNl_ĸXt`xpƙ~rmūprx|y_^`{uiae\zb_fY}xvzyrgos~\e}kuNywsq^zrinuhn}T~oog~Rxmu_rc\ot^tlwog[WujuzgzvzRg@y\vyoȼlrtc|`qqyauhuqynEgn{qkAxwyawzSsezYkqQ{mlnrsplucct~|Ɵ}pi~sEfMhrlr`c^_jdw^hanjp{Bdt/kufyyar[g{pwSitij{tqsa{lSxrwjA.~w|v\lwv}Ths~hI}ihnipkcouȎVkxLz|tgalkj~wszumqtwJhlr{\Ybe}yiakgnfjHl{`ǆOl}wmv>isoL~uRtlvitd[]i{h{Xgzp~~p`NSarb{xmhjwtgsPypc؏Ur|U_m}fqiZsxbOkT{cbPdkffzsgvlxrm{|lgbMx|qpjg}oxvuNrgyxdOkfukkvpn`f\Z}llagDr~~}k{tjseMfmto[lucd~zzd{q{<l{~zqpyogfwloq{V~h|jwV|herRblr]vv=Y?\bmC|he=my|Ksb{Wsmemd}ta~iiJoO2={u`ðriwc|Sw~~}z`yxawĨ|sjyjvX`tco}llS`t}z^c}S~Emy]ufg}jqtLJOQt^pinmjdewor}oTzx~umfQzhZ_Юn~ylRgekx|zfLm{wxcgtwyct]cv{iSmzrpzeje_wpBmmdnyofzwzqhh[tzMpV~,Wifv|dpw|auoqkQwlPgD?c~naŗztO{Mnf`lbdrn~h^F}Te}OlrL}}tm~~KdzsxtjGyw~fejsnw̳ttizl}MPx|ucwby~ayGl4rkegkeeiʤrxkSf~O|~c|hnLgtrYuquv|]p}x|w}a|nǔPviZgNucns|i{wl[qum}myEirzV{mw{Zxkcuos\t\rÂqomnCrpnue|jkkJtul^X[_aq|wYz|ƐmOk{^cW}{n{|ҪybnnP=klySąYOrhXYgj~auW}[dbfc}Mk{nssd~w~gU~qhxp|]LXvt{PajxbvSm`wnLhYRawX|vGl{krrcnRWtivjo~v|jz{rquq{y}kY^f}}ogkNmhvfZokv;liWxtKm{|uUvwbl{>K_{erPsWze[]lqo]~q|rOo|~w^«ytkuSym^wVtY^}d}kP}|cvwje|jwZluz_y~ePlq{~rkjYc]nvsutr[{qmuYqt]bUʖe|Rn@kgrwivxsa~bmekeuX\ēsehj|{{lmNZpX|XM]yoiv=ocmwLkhSx~}auqfoidMtmsSrtoaq{upgniË|NQ]y~GIPo}YӄmSsgt}dz`m}ym~Tog\pdrlMrkZj]mg~{xytx͋8vd`xmrmrwj}rodvyXnewrxnmihSh||~n͕di_cTigw|zzw|vippdjjwUdfj|_{zpT_'NX}hoxyzev}~gg|Yk^i{{_wk|tgmdjsv~pj~=|ysHXh]yd[ntlfhw]evObngT[rmjfn{`efDTlFio{vx~umU_goUuodor`rIbyvdjջnd_WuqgfbĤ}:yJkS\kZXl^`}[R`fo[okwsSȟ1ae~_oy_pm{wwSnPSi{tfumaw^vZsQxvoH}pnqj.\|tvhlyma~lv\}vmM4m}|zxgvWwZ`o}yk{hS}}qjlrwɃW}T|bi_^]z}^vo{qjyxdwol{irEcj"Qg~¦~pw_t}Yfs}aam\ui?gwexmE}pwk}cyxllrXvk}dwkiacK`joaqY{|Xvk_pn>goeoa{xK_skeYEy}mmk|pzxC}vxgpkIfl^\qp`a~Yzbsgqkv{n^k|zj}]uo}gxfhTY]iz{qS}wtZyXes|sC]|xm|m}djvjiA}oobhdUdnSOQeltr~KhT`gdteuUvPzvNZb}\lh{}|vzqdyhojUSsO{V^||Uxz}qv`p|UulrwkhwtySrS߁ozuko`pVtp|[rH~n|t]F`}}zosa]t}jm}RVmt]YBxyeFjtjuows~Xwal^ZOy3Sz]dhticd|bpwT\Z}WXufkbww\_^xl˜t_u9w?^ziY{Ѐhw|Wx`rn~viXn`]vvPw`xyiczal|j(`Jx^>fZhvjY]Vy>nlIkyryvmurvhumZxvptsh~t}ʂwsfnlVUy4zu\gVbob~Ymf]}m|gln7|kuctmzzD}y~iNbsdYdW}ZYW~aSzwzm]e.Q{oAukMkuy|wunl{n{yeȝz|Sqa}v_ymw|fx|x^|qkAvWP}|iZv:s\}f{|mimhooixasBtzetlh`x__ЧXeanoЂf}K~aWxqkWvTSvs^iszaY{pgwVq|m|OdtRZ~fX`svrWoYwsvgbpuozs~Wfttlt{yNnTq0pit{s[q~w^jyvv~usGefue_zgikjȺuM|΀`kZv{ytvo`͐{TDT~TxsyQdU{zfQjĒm[Wkzw`Bqlja@gjjZdazeɍ]voc[k;ir`yOwOau^ngz]gzj\u;e~{Xr^n@vl^~uztcldonjimrf_aw~l~ekUzz{vxjiMvyCksvpQeqtAx~t=z|jZu~wW~p~xalpajUg~k{oi|Xl]k~Xzj~id=ySsop]ŇrzdjscRnSl[Zpqa}rA_{}pj_UJ}~~{lkyaq{Epf|t}gtxk\hk{rgnwR^zav]`_PtMaxSsqr[=aeXffs\jzjYz|]NkfT}z.u~tHYhrUozryShdxUdxkrr}gyn`HVƐ\|jgaf}hllXO~z\CwnZu__psKxwppi||R]Mjwn`qy]n^kd`tϪZYzSfvv~lti}yudbgiTqd|vhTOklonlwA||i{lv{|eheYutCwdtpsK}^o`{aioaMv|wtvUpn[xQ}hP\ufsrHz={usspT_ikdy{Yrx[{vso{o\lo\ey}hZvqrajiztc<eqatxYJ]b{DZxj4a[\hjkuywu}_jwhqsljxrxig\oyqydfd}hqsR]hixS~kYjZyZ~~~|TlF^h|w}po^`kq`qlfJfrb]szizeqwuxjxnospveisSeHtT|{}q6gxm~[jWbvɜ{xm}tttM`rhyvrk{e?ktxc|Iy_=wqrnb>l]vbgs^UN=Smiuptwt~a~orhnlujbhe|Yytt\RxtT\aSuag}vRjrtq|zwrnXzs}{xƏgfth}qt{ozlx}a}~iqyuuiwVY{V|{Xxoynr\wsHgm}qt}qəjen{{s|^~n{gkov|ns||am|ln~l~p~yB[efMol@oqud[EsYMkjg_ҝ~Mgyh~|rqv;WdNMhcwwamWttvqVyw]X`V}RxYXApkMj\JcnVwYswb}|LxpnutJfaĜn~rq~~oewuzyv~|ok~qyNw_bwourtliRxU~~z{~KTeb}{|~`Go`lUshj]ye|e`k}]zz|{|ox]k]ajrj~^OzY^Ls~}gg\_bmJ^hfxoaut9d{ximpr~mTtqlad`|t}Pmu|}Toez}qpo-vgwxgemSholplkZo|ipdey}YmjlykzsxyWjwuwr\uzPi[ywe~wZ\Tdv^b{qxqwjeLxecdz`Uo}c|~xtmljkס~~~\Sxmx~}{lq>uz]npnpYtPu|[qPr_[EW]za̞|Yp_umijjeWbmfirt{zj{vzk[lg|tqY|n^w]vdlVY[rnvG|vs]bn~trI|UJ|mud]iriXecijP{|yaguVtjkPmuvmvy`yldVxTqmqg\Oy{}wmgfm||{RjrJvrml\qq}zpRwhĒpi_rfLȓrk~lUǠ_}ssryiksrqP|ϏpjQ\mmgzw}qœkecjΠammzbrgGfmwkqz~kWvwmqTgp|k\invs\[i_[n\_iw}|P`it[rahQAz{@ux}~i{Qf\iT|Gj|kfmhK|h}[x\Qgx|puŀistwwmlIvnOavT]qpsxTQ}m|nhxWRYb^q\sSvsb|z~[wwWtvkovUrwgeol~qaqxXq_gSlpznh_DwsC|ylsLxDZZIʚdugh`}r\Nm`gnYl[znz~}vRim~anbpkz[n|bsh{fҔ{xfovtqhNh^FZajQp}rÆ|{Q4w{Z]ovspj|vwmZ_]`tV{p4Č_}yuHp{qpOwe_j|[pgm{ajlxxn||PTqmxivw]a|}y\]jh΁m_X{~vsuozVdvn|wpsC[insrmjlnVg^nhccNXr|_w}glvtFgAqisl~\xe~TwOueUkLnz\~ir{mSk~OckkR~y~l`hnUXxdl|Vq}}w|dzqm]wkiNfwshs[ag`ưYY}wtx{Uuk|`ZnSƁwzbvokufogysfy|{ionracPq{{smy~ć^vofnzkS|mj|}rhĊ|}sTk`yh\{hzpgSūhhp}Uqif^_Z}{tribNv`{FjPXoWMqun_^vp~Nvvt_yep}|}vttbx?v~|~f{Lmtx_nuUSpvscsk{^ol`ch`ynpqyz`XďX}}txmqr1promf~}}sWw[Fyvhyhv[zoUq|t}|zbgslWWm~sokN}roj`tiunhtdNzf^yoRfhyrtiĔx\k^w}abu{|_yrA}pu]}evUscaKQvbmddumvz^t_XMgZvvrkx[xfs)}Wsi{5XhԢJ~hwzhM{d}oimgmsNT|tm\t_dciposSxwvasyn|stzĬuwkqUk[|]kdn{yj|ROv|f{ls]ZzvzL~jnu~^`y{pxcsbbk}~os]mbkugu}{|OՂucdF|ZXzywedgo`9tvo~_~_xt|}jxl]d}_7S[tz^nuwWWqVGbutvxxv~|rotrjxhvnb~k|gqxy}~d{NR`ghiphhmvnk`rxt|OLsszcux@pwqStujvfeyrX`Y\tYvcpPwjnD{x~\P~bmj`opkqwC|aC[]؂o`~Rqlgjwvy{^rogaqUVnqs~SqptyqyyrdjzMijymgw硳lmWcguiWx]~i{szEv\pwQ@wX}p~wyouhqms^xwvsoknq|lqv~m]Wob\wuGv6uI}kS~kbkirdilł{wmcowxsosVD}quwqkudua_vou}qjxvwnxt}zfy{qkgvrheyv,nhpn\[hng|fuvsswyuwvn>sWuj~fkVZWhGehlyuit|`Febvj_Z^cpc~͓lyonttg^vr{L}{}twjaoersRvzT{m{ӕnqǪʘo{xyji,aumZn}zyk`chTb^mw{O}nai|hkep|mybwew]jz^VYsmpdovoǠcYKRUpvwp|dkzwGnk}m}rV~p}]Wlm`gk~]mlwgd}ŏTYmgqR}fxxIu_oP[~vwY|R|~qU~{ox{whpobZL{~ewrzzVwt{jIUly}uf{Kwe_~k[KgzmzmZydm{>^ghlq\nvfWZr{XFv9sXxzEqnvyxkfux|zpPuvZ~sbiush{OH`ziwt{oQqkJe}v_h@wGacc̈́q]yqyqVmahi{HhQ|yuwpsmBlG~snđjaWcuh{kL}NnyfMzlyeitQ{{UW\qׇhHb^fuhvol_Ǩtd}xsuZtxm_pxrwypyN[ytzyroitpewqcf~Omo\nlm]MtXxgYhwCB[[UlVroipq[snydsxuqponlVojvxm~{˗crr^xyrrzQ}x_nD`sslgfw}Xh]`~w|wwt~}|fkxVI|i`rwardv|}YwfuQ{jg}ъAgvZnn[julyYmjesfhbuydvxzm]phetqpiU{ztmzyw||kfgyx{MvqѠrj]`_nqrj~ZpWfzmr}Ci}Y]YwPs{~lMqAyL5w_xztuemkz\oat{O}qnp8i{`mwqb|^IrZ\rcyd`~tOorpo\Rr{_~\nxrmLqao{|vYoyqgytej|W{~~o{geer`hmu]km`lmfcZiduRVjyfJvVPzq~dsŞn~dOu^yrw~dVkbmiekZs}uvyqm^noilpprtkLshU{ciwY~udwxRkqYznxVs~t}cwIyvu}f|timwYkv]Umpyx|CQ~MHs|yjXhu}|tyI{fẌpM~e~rVytpykqRr{lwt|rqcKd[|[{ljfmsznhb~sbcz~o\Dt|Ϳal~|~}>dnt~zOGaociWygq[_[m{Ww~svy`WRrle|nznp~te[d{oznXno{~b}|QomQatvrlmh~mЀUƀ{`qst}vmf}bdrv9qvx7zxx2{oYdsnz{ppkLfexeza]UsywnhyGjz6W~NxZt~zNk|zugcxwMc[q}p{`Εdm^uyi|F~~EYpvtcP`g^mmt\[w~n^aRnĂ}ol|`esUxl}Vguyxxcm~OqUesezlot{]~xvuibv~pppq{rXq|xcq|QMæfxgwwpWRrif]rrr~u{tzN}jĝQșktufUgnttwj~tuwrkdƹ>l?yiU~n}|YZkWag}q]KQmj\py}zv0mM{r`v{r}IaIn~aZgxv;veivGpqt\t|ЌawRlp}owaf~\t~Bg~]mfU|ewN`nohmk`|eo~tzvpt]f>vmNeijdq[{VxtavtjvupdIrTm\fzX~zwz`abvtvs|yNuu}ii+pbKFvmq|Thrjthtgx`pyzjtsuA^_~~rkSywsg`ssuouZqfzjyO{d}fuzlhplbo~vXsvlxjptmًznbxyx{ahVavtyhx~vzwp~T|_qtqn{vmh{pcwRieuPwFZztq[[Ekvn|z^jowyUvkwkzwewaUxsZdxәbUdj[OftyirYgroabaynkzuxs~vtxkytocdbuQKdvx`c}`einlTn|~D^mRMfUb|lc{t_jbym{xyw_uUd}`=nwVkc{bR<p}~tlyLmc~dW]itovBiP~rx}sttdX{cf|jcKt{aorb~hWfVNluoblvtiGx_mr|anzbrv}HzkpopXmvjgjevjyohqk^A[u]{o[nZw|ytkxrvm|dvqLg_ixӅ~~y||uYdxe|{eZfoef}~lX]cgcsrcgrhpusr{M}}|iCɃ~OP|gGtlYlU|uXdxMsyghnxKks}pec[S~`SXmuIUbddVN}o{}UwxoV~qr~ibzq_x}msyisqn_{}nVg~lu^~qllVoeMnh}muvwv{iovȌo{[c@s]FcYYQnoqoZR[nU_vf]oQJ`qr̒tgkbyav~jc{z|m_xfPgz^s}ztwislvy||[zyl|bocr^}UxXbxvxr]lq}rbr_FXzYir~^^yuhiq}Q{zjpmggtvl]`zYjcwwr{zkO{T_iixYvozj}Os{ht_tr}}tY{az^xc]nY}rymnřxukzGjʑ`}pi{uho{zhLak}|~NYh~rfgrDrrfwox}q}nk[ezwsoo~`rg{c|~\pL|ys|JgwmdcR@do}cfkd`q\plZv}~irwvsxtmjzT{J}zorMO[p?kxmmYe{pd^w\uASjwKg}fJxD~e}snm]x~ŋXru|N}s\mk{}nbpUWrN~vdPΈw}=t]v`M_~bsfsyk_kZ{fKpjOv`vxxcUk`pvsywpwkajSksjuEswi{h|l|x|rzefvr`dnxmfLVs_xN(mhpm~|hyyryN]zongz{rzjK~itllReh|wfcucldn~vIgydiwl|{gY^vqpBqE`xtelu^ia_a}}u`txuHwxxloˢjtl[y[m~r}yo~7oq~oxLwzxsrqp_MzhVnznjs}Pbot`XʌTeqx_sG~WQ][Xheqwm~SlkuOicfp~wqh{|]˝:^wT{t~f\gxzvVup[w_OoSopstmu|eq^sSUe}yRu]Ziwmf|ls{slkdojl}_x^Rsqq[tvqrGqd|{G|Xvu\{S[kyWaeihkcgahy֚gMuOxzY8xQlkf[ZvsVPbyY}Sw^Kw|5~prjWTm~w~khrzvxjlVVkweAp_l}wYZsknuJbxgjfřt|o}}th~BzazxYuvgWowx`vtuMvoVnpGw[uD|p}ZbrQZHUczyfr<g{jiegYee|vs[ygtok^}l|xHVu~]zs\rcxUcqǜxpq[mvxR`~x_ewca[hkeq~Mu}tԱ~bxcNnz{sphbKON|T{w^^A|ZiZxYey{zuu~rtzfrayye\l)Zulk_Qjd|Tmylxhletvpbzn˓GldYg}lh<twow{tzy^xyY{vswuv|tkz[}wRmnsbNwnz|rqwn_}plkzlf{yKt}kth{Н]}}SePcn|nexknu{SOp^zjyAb_xp|ŎProjoqwDwsf]hplxrKz^wx[~peraQilv|sяvS}v_wvZ}snytX~hmkru}t~`g}}t{kwV\qs~S}SVjiy{}^lu||coiy}i~pY̐hj}z^mrxy\ybvi{cokfsodnxX͏kbj}zn{qq|`pl[qcrr}vvbVhYHca=bpiU`Xo}wwbmzrd~nUg^r~FhuxvXjeismęektq~r~zmosxbrmzyxtanvc7nIltrfm|\miwzzrj~AT^wf|jwziPodsW}qI|pguly{vonyk{odDcqwyYyamrfqTx{xƄl~]~l|tm[lgxSUxsihneSv}U|ykjvL{w~uxrzolkd]YsoceizjƍmTp}x_zcf~PmuaVkZ]`gÂtjQot{mUiirxpurMs[fnYlr{szeueW{`zvoo}dgWni{bo\gzGmo|}tgfstjhn~awhw~gz}Ib}cdQVM;yiyazuzVgq]RpmDEcO@jIx|dxrbsnFbfkcq{pjj~nreCpMj9gnXk^u[PtXv^{mf\{Ei~jbP{q~XdlzaywqJtVQrkipKiz~nx[^q}{oh]}x]CjuqQqnX\tC{kcwyxwg=T~Yzdwed}`[dw|}]npmG[lLf{R}\Skbsr]~z;ʋmbje_Y~lzr~ExxOfismxPlm{ko\l8hq|bVmxbUgt}NCvimz|]us\[{t[q~}il}^Oq5wjnb{}kupxmrh|kWxq]OЫkvD^Pr6wTcmu~mW|a[zkĚGjhuosOndvw_fLW]nWlg^{zo}e}S|srokZΫMywU\}yjedkjbuwdkizzi}a~boXztS{uszmaOxrump~Wgxfz_buqlYoTsqn~lzhqvwutsY~{vuzqujnc{ZUTi[yy\yvJ6p~wҠ]U[y4NeUJuki`3w`kgjidpz|tybcqo~{bPctltszBQV~[|XuHs^\x|luI]eaZmxKYZ}cqpyɟfvsu`xfĩWcmHEuawNomyhwsfOv}OAvWsuvhbqgoatktoQs~V_px]xfney|viJirQxkpvN\tu_vvsrv{gRVpyvj|gTxhhr}rkoSqcvNwkfy~}x`¡pxsm{v@pyttTno},x`rhc]\wruto_P|^zmj~hw|Xbml^~whtp~hx`l||XdSbqzqWA[˄q|rZ}wcTysjg~zp{XtZmqtzsmjnrWo}rGt{Zzr`qwj]p`okfr\it~}}Y[|sh_O{NpcqcvbvhuUniusgcc{ykh~whW\Kuezą{bzk;ZtNXhGSpnjr^FTIrZZQ{tY]ġsz`YÜ``XXgUjrd{wciqm[xXetzr{iyOvsij\~le`iWizwwWuGCzxiCn~Tɳ]hwyo[rsa[Js^hjuuiT<Td|XOMfkqXY~fVyvr_pzvu}n|hh\detvtuuulwbbcx[{p|libu[yodtzwuswmYqT~~qpQxoin{iKppxnno`NwurNPsXftkf^IoEuZwru~R{kq{Xɐv}e~~}_nnvgfwrbrgYot}UvTnbiewnxj|jsx^i{ki~~v~tm2suh{ql[zj_{effot`tg]hvh²ddpns@kid^pzYyy^IntwOn_-oLqTvjf\mTelsX|{q~u~j}r`UawsnxZ?raiilezxpwyM}dxzgOkuzzb~GjkpoďfZf^uziVlhwtgpnhnn{Pft[yguqnws[ytTeu;|aWh~nuwkitJbmWXgjMh~lp_ufne~rt{\Ou{qu~ma}d\O]xqhjzgxL`]Vnskpy|euTpkbf}XL}T^|jpva{maXl~^WKYXhvkzkx_gQo`ru|}iz[uumpqxlg||ok{xn^ctaZbumaȨTu}kyQwgL5tjiÌxj}gs>fbokZym^iutpa`WslW~y~Kj]R}s|jfvs|[wtxzgtq|ctnjpadgWriu֭Th{l{d|fjqhwqXbJrkzoʂN}Lk{Oc|wFjt_\apWq~lxfWg_r{piv|ulzs~vod~s`{A`myl~ndkhi`ZZzpvp|dYx^tcXAgqBKuln}r_put@dvzmosa|{kzlvlmrsm~btoj_f~go[|F|}Kz~^fe|t^^wgssgv]c\\h^v}yaiw|{uq}je{XoqafyrIdqvy`iYyhtOerqx}n^ydu`mgfQn\wvfgbCkN|~pxyZys{n}j~zhZk[}fvklfX`l~n\VHkeRzP}tw[wn}Zlykjp\ukjvjkƭamquglw{xuypkubuJqqm]V\@{sQdrazъlmef`tovul{ysxanb}ekfqhzvwYcpi[bWWrƍ|pwzshpup|{yt{fytrMxpmLVo[{|cTvUVuqvo|qrzi\|wD^mpQvaemwd:cd`aɍMf`^~Vq|d}a(Dtvztiflh}avvkdzXk;gr]wojxXwOlvt[zflx~cmkhq~NyyàoYjfbo_AxYpz|yjvk^j[}VWShXdigocI~~+zu}um\kx|jTxgmmjZ|{|utz`z{~mޟmeYsFvkbvkawqq|lqf|ouqck}xPu}deKhymznnf|`dqaDikwmr|]qzQ~xSwryht}Zq{&Oxukcpb_Y~zbz~yb]xpmkcWh{Zkksxszrny}tmdyVejVkYTk~TyqzsjWrqXyVaikye|y|}te~numfJ~w\bi[~hXLQnpPm΢ylc[hqv]|yhUqhvqy^I`ywovj~E|rdz_ymWrHua{l|fe}vmearnzpl~gZT}lwgllosu|ё{vJniNz딁c]H^~iXPvnM}dzqqz~t^vvfwrsk}C^q|ot֋rSn`z|VbvtuakF_^[Sf\njeBMyzQkh]w]^~kpqFu~ps{vrcUtyktWs[{[<]oY{VdroejWavwc}vxO~wfW>Hdt|nhmXvg]yfhspa{~tpwqy`A{Z^j{YmluHZiKHrqZ}pw{vnX]wGWzseOdhcB\njjs|~gytIs_hxefDHujg̯|~q]zuy~wt_o}Ezrv|QSZtFffp^Ukxy˅npkhNUZq|fviay{qeeN`h|RXVieony]{Śe]jz^t[jsunxugxKn^ry}c|~`ghrTzw*y}q|}Mmz}~~y`|jkRcˈ~wvp}\u~_UtkgkY~InIvloqXdӨtfcjmddqem5qvbsRp=iyvoT{Z[Lijdvudiztupo}zcm~iqw{vu]wrku{n`Gw[Zy|}{OԛxYąppu`n~os~{tlwz5\}VoΙvpeπmfz|}xwj}ǃqVhXj`Z{yl}}kOxru|h:VzzZzhm}|}jduca\gj^zqZy|M[}en}}rnwsp|wsGmt=CeVutyditawĉX~rHmarwufYjfCyg_wtmTQauzjjZy|[`e{_idrnol\kku}Rcrj}b{tWYh}rNw|jȝyohi\LxLrjTdShJz{nzzvg{q{`eyeHU|__hpttvjsfvvalGZFR{fx_~n}~=vlsUtux̮vzklq|vzVm[}tvcuzwr}lvubZp{vvwp{yy{ep|~9]eTym}tn}wfodXN|SZ[eozŗVmd`|~vxhdJc]bUiCcnlmpX.afpzi*sGiwXMxptxu}vrvqlchkmS{|qqb\`xey|`tb~~Au{gq}Uicxl^uYi]jOywtuvkw_Npt|bh}_s\wKܚrpqu}qzoulzYio}wihsNGkXwg^[>v@kq9lx{srbgdYrbDjnohxdhV\ytpe̡msmgtql}qqZSsretZ}ygzpivqy^kdv]m~teug_A~uw~d[GdEy|yzzqMqkyytry}{J|m~vskh{t݁jSPKj|SPpwyYpx~lvvxjfune{[vbofulecDxtgDShrCs_n[WxxOnQXlOtkdwj~zgzxupsXsqZI_SFiqg|wtQzlnrx|ljyzzAeycsfr~}gnCxvjugN{xtbhqnws|dxgun_4]p~~pnyL윤Flhjo~O\Qdvl`yk\ypkxsctSe?ʖvkqf|^smeSP^yvLP}qwv~rpx\haya\px^\Hnl`b]y~KgOtyldka~{pbolrPaU~lr]gyJxWxgyZxnlv{edZa|ObXrteWpgmtyvmwUv{x[rřnj_fKli|iPtoxnvn~Xf{|qlTewrcY]ÈhxBu_Rp_u_pzzrytpXrY|~}piM~tdzx~3[Gz~{qbi}ǚd_PVU}py}tLtk1r}zhSm}rfLscpyotlnnMbzbroM]lh^q\djl}ani~p[`h{z4zUqf5z{~mmYil\elxme?}a~s|~`~Kax~q|{{zxbiydrh[5vyyCp`i{y\otτYrzs|<qr_jiZftuig_[itq{onN{gqq~lu~yp]XtqfsirkgB_uy|ylU`mOwy}pmwyfsgUSleQ{vdyy`ăcz{pmpOz|yyrStwlukme:jpEVEɂszvtiuʕ\xi6jV|}Sfjyfhh_oxlqscPP{f~{wm}mJpwPHtfiG{rov{rvD|lCNr|tnqI|zDxx}tscyzqei|uFa|PnfzsLmxNY|קlm]iXoziuym^it]khz\kwgwß}xuryzWz|x{}~puKZVkohknpz~usprěpi?cxh}K]betonmh}zb|eʦq{ZէJw\L}vfacp|vl}pk{wqgyqkp\ag~xrEpf|}bmIxaTwMsgztL|tp}ijpg~|jp[O{kzf}cdloq{hkto][lnhld|w~ukaky\Ipe}c{iVtro~Hpwxl}pdc7W^pvn(^{m{T{wuav{o-Łqoyv|cS|xulgc]maYNwZPf~khYW[{pyyµ1s|e}u\ctjl~m<beaVuU{o^g`uourb|c]pqlFX^fuym|mvsnexfRcWh~kqj{{m.ydokxVmmlzEjf^u}OtNmpEn|`a}y}esw|xhkuRisMb|i]K_v~|jUrx~rnrZ`gvrs~{di|XziRghzZZsv}jnrwnRjdo{lmpsl¢8eum|gnv/n|r?XXqzg{sh|ftpaTq\p~՜vOry_Qnr~ˁ1kbejN~m2syɨhWi`s}}ukwiZlu_iSlefhrxvpxd}l|}rxfkyXxTGitp`cziyHңWqvrwmNb}exbppl_Ԟlzn{v]kkZL[gZhgu`|rqzhVza?{zNlgmvsXmrQ[}s[t`\MegqVrverucznZYo{yvwsH}ki_zqspaЉ^wcdovÂbai~}pmAŌuuprX^ehabjdxq{whkiy[vvYxmDgv^f}wjzxwzS{sowaVsj{kcgcw}Xlx~Vwrxkphktpn`[O|]|ss{2aƧq{v]wWkT^hu\f`bd~}wvj4{`g~>WwInmns|cIbsSae}|fJm[x}qjjT}{{~dVfIm}xjqyjsnmr_utjwncyHRr;jyjbiiv|xlykXvY]rKhzZs}knuzsxttB}uty}r~tlg|}wlryoyrŨqЕ=_xk|d6_LOz{c~e|v{rElvp}WgT^yedsugpu`܋H|uVxZuyf~vtR}z|pFucqpfwiyeufrfd\et~|xns^[~mlsyXqtnvjdgjbrCd[lh`qzuxdyyZetxlxrqsyqss~wu|vqruyup^}`d~Vl|WU7cjit`berdjf~l{Srr~WvQ}UsXyvwbsLgvstjExerfowY~}lp`bxbustY\wsRx\wtTW^sm{x}ldfoybqu{}x}ban|C{fkwxIndsy]y{vXpvpvy{m~rox:iu|ku`b|y}w~~|\vtr\|fxrkiikx{}|_djGuKotjouzUkx}v`qwu}adLozpuyy~zcxnzikNop]ukqQh~zkt]_~muR efmM7}iu{h=bk~[u`}yRV|wplx|ySqrox|{vznwyW_i˅UiqlxS<df{lSm{wV?ƀunV~zwZ_y˰f_ͫcoYyryČtr~o^z|kZhnSle|j_yucx`|bqi_rh[mgks؋inbmtPqqckmZh~xabXngukxeptmmiu|{kitɈ}uxnqniʕlN\hwlwqm\{\{ob~m|tx|v|jrWm{|wh{n~a|pzOtpDetSg?wtfodsULS~^IwM_qcrmsxz_NM^wY[vzxTƿioh~f`~}pvhUJyloq|cgrosofgh~{|K}iZ]V}t䊍xditO}l`gpplz|iriOy~Oyygv{zeIxzwk}HO]L]u|{ctp}gtaZȊ|mU|nmYZu|gx}xxv_PzutW\j{]K`t=Cwn{lupdouocsNxo]k|[xwlaq}s\SK~kopdtnyhy]mlT~s`OnksprJu{JkA}xi`iS{iYRuwsbmVfspl^YQrf{Kvuhzp~vjeg^jxssr|{n3gm{{9uuphpRqnqygwXEy_Yrvnrmrzxm~{`ul}[msbr|T{nw{~XKxAxztxn}uror|w~w}ih~wn~avpdˏaHÌNly{ld}upoXSg4I[nhoLjYetyÉ[x̐rNwzgDЄ}cxwjb}rrt=j~h^vwySxcmF|u}@LhvxjYvT]`g}mcmXPJqSpwjax~bQrwuPt_z}lsBm^gszvlwRtuvjnzf^ikU}pfn~e]eVvxcfj|_wfyfrioimzgTHtwawHv~jx{HaJaex`joe\c|É{sa|ti}f{GCgnFw{vabs^vxXwi2jypu`av{vZhP^zsvRcocFd5gm\erLoidtO~|sgIOc|_|v|wRhӪozzwz|{EvRhulqzpzz]QwAUrkwP~|kJguxWixp~RSuayYexg`ozxunvdPujcraqv|Zs^v{ofv~gxdxjss}]me~n~rfxb|n\jp*ws=~]rsX{\g~myPyfxz_rc~f|o}ĂQlzwQctAXZih}~R]|w|yhd]}eMb`|f`ZPcart|m}a``s|ZNcgeyycnbgSpj_y4`exډ{TtyZP{{`Zkqr|zxxpvtwagJoZal|Ux_}^fGuilxowXR|srvo}nv~j`rluyqrvC]3ʛz{}hW_\i{Y`ekyklir|onetZsh]zYX~w`Lf}yпZswS`t_yoFjcUz~^K`~rpcqGsdjUj|ocqm~ymathSlxXttJwgԏYctyZfpVrw`@|*oN|da\og~lwcg~rrkit?iklOy}ou{twvKwJpyNr|oit~ndeuk{qo|{{~yw_tlqmEpw|r_zO~vot~IGnUqxv?zw{\T୉psj|LlJhx^}TxIgeilXgvFuceioX}pt:otz}gi^n~M{u{`ihkl|n}[l~w_dp}gRenz|~=yhAk~R]>Esd{{~OY~cfu~oZypVXZn@}|^zo{hlF{zQkzX\tlDniqySoxAvcnwW·VXbhzaxvwxquwnM|ygs}kApwvms|{bgqevk}qE}|fyxOywveY|rg_jy~y}iZxo_LG~_w~kzvRkouxwgrvqczxq{}tc|jqQ{mysS|[|le}dD`@quIgwj{znyxvRlwkohSsTuВmtpa{xw`_qh^{n{n|d~nxPa{tf}=ePknicȟ|wNp~sysRfa||uoy_~{w`hwzyf~qwysHe\|CavX~upghtSwfzQ|uhBrm{Zm}yz^qy|e~}kmivojzd[fkznssuj~dIcn\FlfuhWxyRhozL`h|udngvpu{Xjsj_a}}ndw^iQYp~z|vc~V`s|}Jn}~vgS}o_u|k\?^sxiQftXhzxbrtk~To{KHaoUp~exQ}|uxofjy[m{^pT~wďecRvQgzzx]Pyrupxv|mkk{MyjS/|dDq\wCwgwgiynqtyvLxiȕs5{zg~u_XSdlvO_uRuv}N^uX|Yimlqyo{thfswzzsvbvdÙP~jBt{~vhP~xl{ytvktuo{}pzmw}PGu|ti[y}odrm|mYa]1Oqg`lsoskypoiStudj\~OaimqWczRY~bYhloQHo|prLuoP~ztV|zxjpzuu |{dmBImqcv]lhI{FktRrel^wpN˝}WePv{Íu~zcvJvhv]qMF{gd~huy}Yov_xstn{|jjd^{~~xrjt~wt|keYxB}M[Yuωn``cby`d{VxdoV|ф^WoeZqq_gri|kyt|m}}byi^f^\~gpgdhs\gq|qiiz}cwVy{v\_Xpcb^vukwdmBc\m}|PzthrvtoktwyzpuMk|yVtqo{{rnd\Hsb~fw~iWzjpunbjsfvndY@syxTlRm̠izZ{vxxuql{{yktom[nyybbrgwsn}ƪzvixaoSllq4ioa~Zk}Ɩtn[no\|]HZPee~izxe~ksK{ZiwOvtiZmHɃ{q{^W|sxvyv]vgyi~vkuswlkq\RxurUisZP^&avT[ih}c\q]jn}~l^~knQryDjz}mxse\n~WgpfjQuchYtHvr]zPmQjzXdUidop[i|FcTxmqlrLxw}pKt{pz{yZBn=xzO]y{ÇUwkdui~|ZxAi_.NyP}mkbj[ojpfnU~amo`u~j]WT~xom}h](^m}lzkrqi`oTwvjd^tm]pKPwdry^cbh{Vz^rqDi_juzW~fjm~ab}}ok;xnPug~|~vuzc^w}~h]lxPy}dzzm]ffkcgvrewhcrjt`akQze|wswW]i}zqx}Z}ntSqdy|}[fxpFk}oiselhySyqMuyccvriӠ|pwjcq\xojpbfayqgyZn}wZlsFg\|vmxlc}okZXM{dds|J}tJɺY]XNpu[zSp@}aTynwxjr`mWvZ~}U{Frlzq|kjsoirtW^ybma~O~j]isVucyWSP\nguj`VuEj>Yrved}yutBjAW{|I|tWNrjl[ydxUvêwtqyszaN{j[1tazvsiUvlwy}dxrpTP`\vujsūtu<~s]yuhF]cz]tzxx{vv_Uukr{Xno{kpwvltkYber{wlec_kdxrkb]k}bfbtss=Us_fr{piler{`W]z}xymMu|v{msj>TyWkjhRLwtywg`frNfrf~z|ttTjUU]Rvle|tol}qwzjeaxjytt[pkxpxgߞugm_u{{\SvlY}tsw_frQEirw{Xap@_vgsnjmiQmP|fUsu]jzxysĺOxzt{OmqpsoBhs^qw}v}d{vdzxeWwiogyeymxxvm_q}vjz{cqczr}xg|hG_lV]ym}~v^9ec|vvr{ckxo]_zsicpvbw/nwvTxz|UgfDnhy|OwcD|tq_۝Dm~HLfcmru~Dtejrrhg`|ytgZvgn~iRtfqoqqi}n&P~UTmXk{{zRfiU}noWkquNiZimdk[bx}iwFzztqwny^pVvvoX{ncu^\pmǽ_o\g`i|}e|sShX~ir}b;zl}zwytfqyqmkJur}7vTs}Moe7zhi|rwd}y|YrVUflgyYHWfЅi{eyqV|}kkpscgRZjlu|vzbll^nzix_tboJAum^^hry`~yxttjEUQkxyl||oEl~{_yn=fh|eaFÆ~nSzfptdver}~thȔpf~F|h~rds`uf`Xtce}Z}Runx}o]r_{udlrZ\rv}pvVk@lvfciicf_wqZ}{pngmfeijknrmhq~ewciftlwYTs[lXl~^}ijx`[|vncopjvsWdT_zxXwkwXqd[Jaswǒ{x[oYy|pn~oiz}l^Ue}|e[b[lhy6spGFVzotz|hTyvpuaiNmnrX|b)<zwuoehv,txol`jzp}xod}p>|}}bvxq4z]t|owP^mhXekxutpwdhpbde}PYvYGTtTp}Xv\IgvZtz[kzt}XnfuoccQ}~j`\IzMhg{hxf|TUlhZTchsuvimQhzty}nst\D^i|xsvksuVxhVwhim~yjyycqopffilx\UiXlberlq~ԁmh|rxx%yop}|fvtmqvkzFy`una|~Knpjm^cVh{trgxqRnY}zatLpubwppuT9Órʖemfaky_~skbMphjzjzkjmĪ={`zkuN{xk}shr/owfsq{lnu[{}}p`vaU\dpd}VWKnRGytxR_tfkxblM\Swky\ntWubx{oyzfioBBWu{ewcvozKpL|ytWƦqBggbbc:yidTR=w?iwc[l{pmHL`^hljcpnh^Rihpxv;Qe}hc]zzl}q{y{C>w|svyq|]cyl|[cr{n^r]\trvuӸs[wEQjrvbJt_Zzf]rstÑ{uiyb]j{ňmqfqbcgiisvef~i}r`V\C}jrDxPxX`{X]~}Nuawkciz́6yrj|yyMQ^8f{}Ulnkm}zʙtybcosXF]~ydxsxzPx{mp{y\oa|n<zzoWCweinGejdhmgb^oxy`_g|}Sfzb`|er}sbqtul}fzi\OUv{qxVk|Udhqwj}zvm{n`ym}~aae{[[i}OZdf|vZYyyjini_|~xUXNj]rmxqJ:ult~~g|~Z~lr|zaqhd}`fzŐzlXs[u~vnng|\ld{\nt^v|zNX^Yyx~}gxi{p~wvx{plpVsoGMahiwz_Wkm~onk\}xׁ\yh\hf{gtvmcpuk|j|~}yJsUuo~wvlspvj|Yo}o}|Jzmf~wonptcht`oxIvvqn}k^n~}Yks{jit_gtx|mYaml~}`h|pd{jqs\satgEju|Pmb]~ji|k|x}lkg{]9vnbf}h}|oqncswroscQzfszV{aX~zxzszxgslAgZ_pryŒnlxvCjHxfnqҝ^Uzp8Ynftm{v|xj}uS{s}{xt`lhzi{`Z^t~ko|eh*}PK}praYOqa~n\s]Epfit|`qlD|h{onuʎkWanM}uo{V~ltW/|Uxts}shwo}}N}owgeyuKhOdagRu|SwyjcepllirvskSyabօx~n|TqSis}xGzp]Vxxim}impWgxI{|Uc}o_bc~s^{pl_ogLݜwWm\bMxxpyfktfqcjlX7wzsxi}VttϞXnRT}``pyluUs|jxs{{HjrphIuvqq[Ė~}_r7_kld~yhgi|vvg}hwkeGs~}z_RQOblf~{NequhthinQtwY|u_~hoty>`y_qɓi`we}ZywXswod{rttw:zyynrXpzsr{w:W\Ll^fqzXuszcvZpwsazirjqvyn]taPjzd^Ol[|}bezvtwTx`_ys}mgwmetaloc{hlax^|b}iYkuzve|zu|d}xq^hgmq|oxkl{f\|P]pq|FzRGYe\8uwoF}aTyn?vgqtm{p|}jHt|i_Wdwsdmh{j~smexyxtyzvy[^k|dtvgiXw|wvOjbuek`lcvRzpqxr{{qarSi{tcw;dl]qidsDrrfvh=~q`ts|otejxq{~kgPsRgoscnt~v<yKTăJOHuxzmekj{zmiZ~kZfxfsu[bqmwrOQjnjwnu͠_\fuwrǕsoQs[}p|{|oћtU]{izYL{i{zoldCw_Q}lSvi}d_hMƺRr~]A3|\X{rbyhomhvQqejs3qljz|etyKyh{[[lehep{|vccr_bH_p{ppyO}6u_|~nq{nwo^wx}DryhCmyxgHwqkajrzke|\\.kKt}Cpgz]TT-{{qsefYZ}oT{nglworvvzpeexionmeiSqw}nesd]ephG]T{x{5v[o,no^sbn8m|eu|s`oiVPbx`ftYE\~OjW{mtwxxu{scodl[7^Z|fzxq{bt~] uumxilo~Q~vQc{khnYd_nn|Sw|ms{upkƘsxa|gr}~onilc_qqr|m_xiZiY|upsdzt`pgxDqW]oQy[ljx~{Qtcwm㟀vDjwh7yv\}p4meyvUR_dwicTz{{KIrpvaOctI{pwifjxw|}xWpprswcX{a~6ڋTĀlz~hl}smZ]}wySnmp~|hr~Tp?~}l}ugumbqlWte}jcx~_wWrrsfunbVp{|ikу}vggvfkkiusbueyervq~qf~[]{vw^NqJp}aN[v~yU`{odfh`tXwmdjg|dwsunlijGihlo}bq_{qgv~iv`q~a|̪c~sqk_yo_zmvwy`VjDyijyYQ{gfV~uZe|wAqTr\huizvg]iaztecw_L|jxeHpwf|ux~t[q{wom{lgoct~ZsocmHpic^~rfwgILhx`b~jsmknf:omʉWuqKw|{gopYx_aw>|qptwsmvzms~ro\svbNV~d}ZEP~F|bxb\rFXrnrskYlqkppwqhrdo|Vxyno|Zx`~bvdDYυMp>\{^ve}enyqyrvliupnwLVO@Tj{zrh{nWcw}pCV[uixo~|pxwzp^̘|ZpYjhaqao`M}Q~hLw|jw|kk~Ujy~ojwSzy5srtavrqrpztirRmltnrgBauzQ}wmPf~ym_}y][jufkyyh|z\n_Lokd{fP{imvp{nU}nyyiwMRpo{]QqDAdpWcjl΅Mg^xyUO{bhbQs<}sWoxdx_qXpc~~~g_`jHZiVj΀GUR_QbjlugW]Y~~ZM~dlzYk}`e[nemõe~|;uu_}ɶlz^vg\nTq|wumPj_afVhav}YMTp~ji~cv<<g^|jfMhw}g{{u}x}CbRSykjYxzyqIv||bp\eRviomuhiinj~wfhkqkxm|pt{sYnx|wzs^m~mftrqpnWpqcax~{lsfir[Ysw^^afdxxu^fpXXYqoflMp~]o]^EzL}fDU`jmslqsqÔrh}\zs|myjz}X~{wyzeykkaqsyWhubtiJwrWysSM|t{gxS{{kpukVugaPoN~crvplbe|L^]eivrs~hplc{Vj}cpRlxwyM_zz{cOKwlmǓd}}kUh}a}j~BɠplSnrK~evMtvhhMʞc~n|{qbzPsRTknxlw]hUe[ejn_lppY~rjLwhv~OPt~}x|}t^swyQ{~neQqwrYrz}Wpuu˅fVptMDqmznwvkŧsr7mZLiXyAmrz[~xEynt]qqyve|y~^nYerzvL}cwwvcuapfaePkZg|uZ~Uz\`mh6yg}EG~nxm}ar|qKy`~Od^|xetbmd`aggZ]{`hwlqa}d]cncbpNzhj|yS]rwvvs_\prTÅZsl~vwqp;n{zTpubDpfwtVqU~u~ntJacvf\tzXulziJyn{}tmbx}҂uxowa}qV{uWə|fYzsx|ny\^lzu`qmiЗSaXdp~kvkji_vba|zwh_UqՉdg`a|i^j{se7rpTJT_njZolvݑsx|qrdmbfyUemlnon>@}ĘtGfj]o]l{v^iwfZCe_]|{̅~nvmiqRx~giwt}v}|^pzlsrԎlZbKnn~q~[nxd}yoz|~W/wvavurmgW_eyǎipqa>M|{Kiiow{akugX[{z^nUq}L{vHvyp~l}uibRz_ay|UOnm|Vwyuql{spnjx{Ngj=vo[pp~P\tkwkRghX|mPZFEcvpkutq}kgxaznqOsMll|Sjkjwyvo`_]yn~Mjvt{vfokMw}}`qT~`dsv{vaokHfzasmw\}`FYFl˛YRnb|k{i}}knQzsu|eMk|up}m{vgxH|tRxVf~wQYhfSwnTzyDfjS\ptbQ~zvLphccthvygxzunQznesJqbt}yaȺviQzwlsj|qxw_dceJ|urWnr|u}vjt|kciekt~b{Mrx`UzvS[XateUb~w}zg\UbgkrȐvsylvrpwZZWohlpzinv`}y}^dUstxyhQ\gmdZoZe}gounguVwaaqnc~c`]x~smdxaiy_wtۍbz|r\znYNqdu}wx^kuVotwp_p~Ud~{^ePzjw{bEdqgvtx$6{}rWgszUjwVvpÃwWK{vq~YqXXu}YsZmr}G]ui~uvujcmIvoxjMďSlgŁg~|mpyknyvly|xxUgxysu\yeqqYsyxcv`fazulel~j^mSfvioxv{dg{ErJyuYvynzbuM|{nmVnyvyhgMXLno|\}iur|SJgiCy{Si|rzi{uk`px|ud~bt}agf_jtCy}v|_orcxa{p~wsqg|Z`omuNpkjWSy{sxo^x|rrilrhSkZpqPjzy|d{el{z|i{{kbtigƙkhxU}wPSbkwpWy|k}u`^vlS]o|ooVuWwsjfmydyuzOJWllt}ZmiiM|aw]jvetk_|Yjak{fUt~esmp`jihb^d<hkl}A>s|yf|\ouf{{Vvl{\oZsknw~Rc]KndwZ[xdq{iuko^n{zqysfT^TYqau]vmZk\~osvw`[~zsPa`zN{{eچn>@b[ztnwmhj\qet?vpt`yqolqysT}U_nsvtxqyjzk~pTquQDxYhddwi~fhrulnqthMvo\u_{r~o}GNyse}ϟZg{^}[ih~Gqtrvzqxywd^ervAPjkUX{gz\a|}wr\hxh~qz~xrfz{wGttK`uitxcb_pfZbhP}Zlw}M>_{|raaywdhlLy~рkS{|scvsv}s^awl~tkL`htLvPunsu~^hJShuNxmv}Seognbiz}s{ywv]qr]~|jpczoUv\Srlrjwl`jZz|}uM<xp{ouc]W{aiiumZk{mocsu^TxopqlvtgzGyyWkvZijRmTypyP`wmxkOk}vczy~\tX|r~suxsxzKqn{d_pSvam~Z`]0Xm_TngnyuzbRajɤ|{|iueyprvvwnuu^d^jULim:wz<vtztyw^cossqVq@}^d}NqkxnLjm֘otsz\peery[~J]vgU_xwniê{f~tb|opvo|gmh8~|vOmly}Me`}uozGerJdɛfTmy{TP\wjόO|w|QnUmx[q}}Oi}k{bj|}^nhkjcqspub{ZëOusy{e\cu|y]k^xpX{ruxy]rS}nYtWjusg}`xr_mtw|rt{Nlo_ze~{C_[{rkXT{sbsTRttLfbt`{~x&QoNgJmzXfzQ{wwm`gYQFx:ep?p~vlmxotyarrktwzqo{m~yg|y{qstxp×[ZwyIyV}qLwTA[go]r|F[Vk{V}cX[w^`Saxo}sjsulb^}xW|cptYtnxjprlWrn{rVi|ǁm|V|p@h|u.u}hsxw}m`snpuƉ{ilwTp}wrwhJouhy[TtwFyQvfV~{tg~}yylaQksqdpsjjozruaViYcykxtmŶ{jsxjni\yY6~yzqVk`}@~]yi}_oSeloN~|ojQTtVd\fr{illbo~xwnwYiPeqpqWelyZpwdyez||kƁfZawxibyP~joe_k|qu{WvvmN_k8xiprNm_grg}gqdfJja}~{\f|swknuo}CxxX[~qIxyxOxip|}vs}~wyV}u{qezg}af\q^o{b_S{www{zq[Wk{^qts}Ǉyqrtcg|}r]bvc\}xO}|{lh{osz{jucfgpp|^oMovsqpnodmlz>iW]syIi{x|{}vr`nzmx{njmHN]vMy^_@lweOxwyyc}R_ion~yv{̟}khnkoJYgogdPaPaete]}|w|BlgƒZzQ[Řy_Hb{p~^]^lwj~qx~HiyfyXxhxwnpw_twl}UrVp~Wj`b}sǜ|ebyndfywbhuv`]tZf}tfpr|^jmsvlmub_~zxyf~{_htjfUYf:fooHCqyyh^tE3}otqTlsrz~qeoĂq^mA}z~fm^zySsk~mSbFj~vmjgiiml*x}tWbegi{rttchuhzopthx|x|ge}azzQScD~bpp\yopjy{rlqgHrtS|{s|]Lq}~Xf|ksuxqir|prerX]pquiuvrpxfbrtlSuZcm]jqz=hD|s|MMmf~jCUTRa~~sqzq`rbujYxqQsl7k`mnYyjsBv[wtY`eUw`zcgf}ijvoiq~uguxO`]ZUmtUwukrRh[]{v`7phdk7hz^jdltJ]Gdocwldn|yTi{xthor_ka{xFccq8jtZh\Xdpzry{t}qp|jI}}{]{klOzwon`bBvÓrWjkhq`rqayzygO}qk|peJkxxfO^w|fLWiOnzcl{li4jX|Su[qprbpq~nOrYiwSqm|WvyZ|bdnhw|toPpyqy|zak|sr}^kq}`^vuduXv[I{ʇӏZhkwo}Tq~}vhtNwyzyRyV\dēS}l|n~ybfwvQw~t|֜|gx{~mjnM\|gcqÅRy||vo`vk}k:J|Zzn]gdmyboiIvtYefAnru}s^hmoh`m{ayaz|jq}H{xbrOlX^ov|[Zir~kw}~lnzd{xsrEkkaoQ}s{|cr?extv~of\4simi`U{dw~flt;}}p^nj]YR`d}bUu|x~.PpeQltzp\\u֜e|m[}lLClgqޙmYpg~szyhX|yyl_a}kCS\trrz}\ikys}|}[vv}g~X7xqhnrl{ayohqu~aϛBfWss}uuw~k^pZo}xdZvjyx}zh~wro}lz|tuuwvpudesVZ\}]zwc\iv4[|cUSworAXZRbutb`}&w`}~~zTzpqh]fs~AqXmljfM^y`U_x{hnzhsMx~v`vcjicvpskqzؒ|que}z^v?}wjontIsnuvty}Dtz^dWx~FYxctnhpy|tOexpaRM}loy~oov]zU~vnVmzxv~L_sepau}_`utYobcIwkc~mmzs`lyĦSPuy_tigsVS~u|yXpbzL]^ew~VcuzypwvWwu~jTq~Ae}nNq\`_gzQkcR~Mmr`tqqk|xyjnVܖYC~jMślwf`mPqs9cun]]o{wzsohelcu`Vhooyxi}Lc{r{a}Vdezkm}\{vsv\nsivmPjvirWWifxvY^x~{Zw`K~lvVzNrMPrpw2h`}x~~Q^|_}kqyZr]sW^|g{oGS}bkoOm|{uvE_p_pVy}wnhgDiXSkdYs]G>q|yluQzmb]vvioxjy;jnyzQwjdZX~zmyqŗoAgaveV^|}o^hllXqkmi~_|Yrydrtr_wcmmxvzKSZxrfehn~Z5q}{Z[grXU}jVmx{Ztslx_cn{\woz|zgrRjrxF}\llUU}txs|lok}~exv{xKvpL_wh~[McFz~w\|so{|{zp__kua|qhurwwlUKzbothaipZdXqPN[Yxn~bxVȖgy{gpOwT}\Bu[x}d|nvFd~nvd`ybg~X^wUm|a\Gno`}vM~Spwj{~kzo~a{jDLWeize}}s^`B`wfhy_{pk^}re^~bg~whxs¶}iI{qpsswpkthemaw_ikٞyl~wL;dxy\zBrz|vsO|tVh[x{mtWw}tf]z|hlkfo_ylrg}aoo|h]Nht[j}ruiw}Yrl_wagpMpsDui`xyhpxriorguyYeYiwey^xvyu_T\~x\Pm[gz{\rmnq_jgwuvqmdi4jyДsPs}hdiwy]kw}hQof}log?{`deZbz|ow~af{|{_c^jzyWe}yv{tpofdyt|t|T|xd``u|vPr~\zydqztlqqtlVzZzsfnWiuo|tjzXvQp\jsjCv}kEg}|wW{؃uWqzXg~wRrjJeVn_o{WVV_f[\|{p|li~~{wOlnVcTal]]kzluqԨb~z]gqfzvanjr^bPzkjf;8xQv}|zZtyqsk~]kq~Xk~Ty_hiT`wPsIfqcP{sqgyX}vf?\S_nqzwmhvuVsfbr{hoVk|vVu^efvr]fNvz{tv^Qky|s|XtLs}[Zxg_wf<y{jowvsRuz{kwc|zmhnp|gpW{}pqUa]hkZeX[hauvg@hM^guWrMlaet}|hyzrl}~xwsvwub{nw[ygnyoupnώaygLV}q|IdvjtYdxk\s[~˴Qsryepx{c[i{UԜgxyiWqrsuxw~zkpw\iqqL~ovcfu{j^H}~wmWmsvtN6Iyϲz}z<hr@ƨkgvtt|Mxw|{RdtyWvs{j|t`yrv^uonhjyYr{_hvxz{Y\gl8~ykewpyyu_yAhckoi|mtSa|deblhmc||{bt{etpeywdxvSgwxpǵ]vyrj{tmqo_~tu|~oty{|zgy;xSpYlSzx|tq|Dj];jj9w}qrv[RtaPye{xuzzesYgfon~fmjwnqzUWl}kϿpRLEw}}I_zp{}Yqzh}Oqmkgp^^diqfjg~~}znfev|~i:l3}|TeP~j\[^wavu|{|nsucsA~_{p`ahVNwWk_}h_tvjt^kXl[TKiV{OowpjSZopbDA7|Yfpmx[V}dr{awvif}}[fgFwrgtWjpxjlhdsiqrZZthvo_Tofpxy{Ecgec}lpZHtt~rytvD~vl]plvxhqϗrjVe|~ybs9v\nvayt{bxxzmRup\jwhtz{h{wgśsNb\SvkPwr]r|gd]|ypcA`6H^^Xfnkf{Ljwkds|T~|f_iWbep}gvpexrGkyZS_t>|nmy{d}bbv`wZ{ptvyja}qjlufoq|gzqubszV`bh[g|yvjkb|LZRb~E`oN}]rifryy{cqu}>ulmzlq]nfwnάpr\tePdvx^qo}ajnwa_|zoz`fz{}r`s{kJgXwZjwtOsv~~hzvqcu{|;hkvr\}j^{tsR^epxr~zzsivrqz{U]xO]acoavTgZUgyhWyfc`S^hFolu\Acipo{~]hmanic}rm[lqz]zcxXrnGSfhyʡieJztiRn:|^q=ryFRRjf]u|~TnrhSnj}udIKjyh\z|t]de{Ndkr>vEz^ѯ`Xbemz~`jre~Ko}qeaxgK`|sgx~bgjn~m^Xqxb}nugyonitxXnu~iȫBLm|jlylzvs{gkxNn\swegz[|~Whc}k\eSn~iŅxQQmLm~duyHuyqr;}y}Wntuylq_b^m}[inbz{}hsldt^qwgKpvɗEqlssrgstrxzsgLkiiwiHzjZuvy|}fxk~o^]`SŁkrmqzp~XuW{1qdpqmIjxwq{{fpuwWUEowmv~m[hzjrrxftU~P~j}r}lbvqYěbmJTy{wriZvq{tf|`nuVf[Ykkw{ɀ\pUw{rrZju~\~w|}Nqv[yuw]C}˙~jL_P~My~Sqz{chZv}cfsIHigSUqwayM\yv]}k7ly_rvoXY{^tfĢ^qNeNVt{~tfwzKsSxz^q~Q{q~.TuRayz}|^HlmD:Łe]usTVm|ĩjvZxrӄ{fjRstrvsZX{k}yts}k{|{hr~oyXy|¡N~|r|}YryyUldp\ilu{tk^p~^w_kzxpyxR{ڇjfh[elelHsL`iopuj]h|wiy}fmFZx{yy|wyVnw}l_spdrnzltYsi{}tpVhYpZ~ɹ}gyxTr[m|X~`\N{ojmzfdk\jW^mTv^pMkth>t~net[^{^o=Yq^v~XTS_fdfNl\ubs}_v|}z]aizh[i[sqUȅUtnxjk^wdzNXrrOvi|z|YQelunZqbxuvrr_BovrehzYyŃ[tUl~oj{zLvrcz_izxb|MILxvemlh`|xigr}bv|Yt||ki]qvy\Y_t}lqnj[z}k~LUpdwe~phVdgvx{|ejolpacwow\Gxbx^c~|vwrllsϦql^xl|Za|v{l/dwGnr~kʭlZx1z^{srjz^\yphO|rjoZtnoJXrxn6leZllu{~s_Vac{y}t^t[dzizŒwB|rvwv}ykVwvYny}qqȎngzx|vq{v\vFt_M|utvъkcfvhlOpxZixTLwRemw{~ONZòxzYfvgiguOocXlcm}j\ˋbzpz{dzDMgg}i~~xsie~yFoo}ΰdlqvwj]y}]~}mztkxmpbQao{xPxjW_|}}zcxLej}vl{uexsZcxrȖuxyb~pdk^xysirv]}jckauxvv[wxvjpv{yyuz|lxuzoso\sCIpm\a|zpn}mSv}pf}uWæj~w}z^d\_lo`qNHt`i{Ixfw[{ruzcyWlgJ`exfW|L]~Z^lWwmAwdt||Xwy[e~e=^yrqY}:_za{ktuJzmÝsrjgzHgz|jX~ggyjwhs{wusc|L{`{eksLf|yyQx|nkqwl{WSdLw{z|rnz]S¢x<v3oAgrzϑElU{Ælez[?Wa`h>w\Ptfy{pRybo]lysi~Hwzt]vyyV|wUwPp=vvj]vOb{]zvYx[QwQddltZiezn{DKɋumjrcntbnx|n~ʈ^}~lzqSvlpg~vds|hk|ɲ[Nk}qgI~o}zv|ioKzup~{wp[ij|zqf|e\]ug}Pfiw{KxhypgWmntO4~yqzqfe^urX_ynJvT[}kjnmHn{_|pc}stÆxie^{Ny{_orhh|kfVqpJll~ZizbTR~zg`c|g`jkrYoul|nqwĈylWiqpmUn~`aky|B_hr{Bq]q{jqAk`|i}~ƛMtxӷgk/zvicllmsuboqx]tp}perwԉR~qlsņckKubgjt|~ciggjz՗jgy|cyr~ojSHdivsXlfl^usn~\~U_ui[wvoZ|vkJ`j}Zkttz|oxVxn|zysxegg{xzwqulutNcpsu=v^XrtVrn~iHkooqiySi]KK[[MZu~zjW5}v}~uvsp[hfuolg`z|sdp`pffjjkys[iAmx~H`akvm[яVzxnsOslXbnlpsyx~^uf}kw|h{McUu=ye[dr{]hyk}nf_iz`zvy{~_kgKq}h]vewn{W\vU~SSsU*Us[|wnqwtXZpdvfXpjr\imzt~v{kxWwYv|l2NvneE_BuWHcřmy~{}nriytxcaOmn~tvyVVL{rnwQerkabpdkDz_dSyWu~kp^|[ȣyxn?gyfqRuq|Xd|fcvOZulygY^e~{w|xWbJqdKjw|udta]uTt`|z[d{gNeoiku|B,dQiuu^`Su}|lbQpxae}ff}co]|}dKrw\{}~tnPru:4Qln].c]j|>Vlkjldt}z{QMLNPsxPX~atzs|kuYopnkcqzlvaszbiiy{[v_e^~~nhxuo}ajlt_wt{s5ovYFdWTOw|~GeT|lvtq]]vslkoPbYz}lmLQcnpxousai>mJre}nYhtujx{xdy]vkyus|nT{|FqLzikRrslsu_Yc~Ys|{vbteuif}p}vt}Zorh^cQc=p\Zz|zjku}ZyeF{[zF`guSen[ddlovwz~qeqhlxrd`gn9vzsqn}~Eiuetaxyty~fkGr}[pyi{}CaW~XmVxktvu{K~z]Mys_y|lu|ia\f`YtjwM|f~uoRvfsZjmckzrvep~KrBcmouoLmsmilfw[\{{i~qi^pxgu``}mOz]{xi}`zpYmcokuwnxwaZ_]RwQXCe}EK~ptÐkjp7xpyr|trz`Vkt{pz}qkr{nnxfwyrhogbrz`uNuinWe~qYL_vZjr{k|zwq^is|O|}ZktzandJowlvo~Ny^emVS|vnbxi`x>||rgznRhwlbVj<Vap|ycv{vnYoszO|]aknomđ~i{}f~`V|trUze`evoo[xfywtizrHuuig`e[qwmm}[{~ovc~rvq~[ylflkqqujtra楉lun{\Y^n|vTdswvscYytUnmbP}JRKpuwi~y^clj{yuafiZlv~nmuzz{rULiv\|wwz}swuuaRΩfsjr}xlu{]~vr}lWOnf|sVorIgWWq}Wwk|hZrenTuf`yrlijcFnYqS{iunlu~f@\HpZwWt`~k~oVt}jUxg|oUTssIzjU}̆mY}gwj}|`{Yj_grqo~ʊcYlW@^yxmH9CthayX]ckvvxc}jkhyvew|Tysj{t}Ummktz}e~fo]qzpkZ`exuwY}rjtrluj~hvcfbg3xmjtmx~ciwhwk~u|}knnx@rjP}XcsvRxjuWxrkQk{Nck{Oh}шx2jqmgpxzlMzRz}M~_kNyZo[nmlfdSxknu}zhMyvUwmTUpYQhtRo<yul~h\}x{n_n|xZramqo{jfapg^msVZWge_{}NpOuhggwgV||t}|kn)ljodeSz`~{hnk}Mcyrm|ȏlPkg>c~{xCZ`v`{cjs~Exl]~O˕ac`|uw{wuszvjkXez^bGzx_ZEslN4iihFIvZN}pz_w`~o2^{lh_}Xgytj^yqstwdjykJv|ku|\ipfmmqtTaU`YMN{kzU]t|jLKu[pfl_igI{{wvf~Kwl|q\~ok}LZvRz{pyq}e\xdtuvnymS_ryTgbcYxgZimnm{njIhYn}{~ogy~Wtin~}jzkgjl[cЦ[U_wxmkRCjPbI|GG{hotueqcwk_pBzh_dqgrl.keN]pd|}}ZS_={]`euq|ajq|mx~Jl~uF~zXu`}PnWapr|w{yp`vylqk}^tdrxZqyhmzEqyyfvPthVJt{CPyo_Zedsntzli[K|eqKxqWyzviZr}vpvztczyyg}ȸu_|`w~bmjHa:br_V`aocv}}auQvawm]gr}dG{mzp|Ǧ_^{kdBzqwm~vTxZT]tkyr*nuT}u}f{|l\R}ilqrtUpopGmbwn^t}d|~Əu@}rlj|vq}~epjucnfpl{vtmuwt{GyKvLUo`lpKi{Zenep}ʠXlWwpxep|oʏlfgߣdWpvs~pVkxzrZnywZwd`}Zum:}lU^z~mz}ilvw}њ\wtqZsV{VvmstepVC_IvwgqxxyStwq_q|xbmysyszqTiz}nRYbwyvmwu{qKUwmcy\^evvzw^mymmgbnppnh}tQzVwK|{\smCixKpyœynr]Zjgllm0uOyzhvz^`RpR^zr_gxtqdrjyv|~}J`ylsybg`xW\\q}ozp|`lop|TlxVZSxmyg|qzXwLmgcwÃgBsanzm}v}ywvy|tHmyvjhUy}vqytwwlSsBovcfgs3|s`nQ}gZdrpmj|v[[tTs{tfyjmbuiz|a?M~ddllax]y_t^u~slqgrqnQv\׀zgW{oKx[KvvkBX~ek]hs|wgvgpʚkRtqQnamujl}osHx_o~~rdphm|rtfCuYpV^yccwZZ]wSj|uqhk~sS~}jmljkVeN_uitxLOvdZxp\UOfdi\{guWO{fs|nw`aqjiaxoYYwwduZmoƉnaSv}Cgq_h}w|lz}~kb}brdtSw}zbgvlxozr~}rn|vp[hpH|mp~`}cd~d{leZpsshv|zMj{zsvz>Lvz{komgcG{~eAozt{kf{tt|axdzhla[fbmMvkN{|nq^|f{fzrrih{[`lWulw]wX@]tw{{s~v~~t\l|`wdgufotvsgCwsv{t|Ps{zns}y{l|qiZm~ti~Qqzb|l{r}obggspDnbkrh\oalrsapLʍMn|jS~ehanrily|tV`q|r{zvssyXnhYy|StkKm֛pici-IilhtfcјldkpGrwf]n4P{mt|ruhnuv=c{mXokc7wwhtk[{^{dedzzxWmXq`aNyeiqxP~yvqkto~Uwswthf{DRdqc}vl_Ueiz|`z^Ztropx~poiajKksgTLvxoeptugPov]o~hl}f{|pU\Pewg_nr~cpa@{|dxh~x[cgyvXdT>|Ngf}Vlr|jy~u{pzyt`IdWfkqppL_xl{ɭtt}ljbdOzɗzV͔uwQõ^hyEzsv̙ThXvs}~stup)p`uh/_fvAJt\}PGyqasYwyud|uxnqnpnq@lloyk{z]_wRAeuXw\wsqjcX~Ƒ}sbnl{xzrgutcu6vv}wMour^H\jqK{nɮqO?mlbÏvzee^kMw`|wmBPX'u{xXw\qQkKyr~pwxzfp}ic|^aNPOmeuggqGcqeO{ejV_t~no}pni|zzrVidRxUzzSyuro|dma_Qlp[{eZp}w4Ozjio||:z͊Y[tystpeK^it}â|yk\fdrywcVwnxuDv}`bw#l{n͘qusxkS?qxw{ժxgXWYerykeoq|ehhp9S[nJ`wpu}SsqecZfX|zog{xQghtw}㬷atvmlnttqeV{dXzt\ooo}j{wsiq`}pjj{p>ccm|hzj|axWd~veblz|\OWWvmesgw\rq[Nxkwzk{u}QajX=Vz_nzSw`puycuuox`kcAzXhh|{pnV|xupdȗ~il~vMdefmZrybccEH_dwnxjl[xZVWuUj`sixS}ȣiq~\[wPwlx\s`}`x>W8dSqsBr|pHfxÂSXriwmvq~`q]vsjv}~R~xuhTqudViÑnDq>g~}yZjbJwmpwmvirlt]ll~cgTcU~iQuktc?j_wv|SS|pe}vOf`|[jm~lZsm^hgqty}oPnwGc~QSzWxp܋wbsşunkdruowrXukyxghqpOvvQe]ydsewwJ~wqcR~mxts^yyxne[v`|~{gutɄuhIk>5myner:eqz~^Unyit`~jg}`we|xf_v|6gjdOº{`J{rj}vqeioegqnv`rVnNyoXygg^qevbxfhEmr}ir{\skgz~~uVjstrtq_jnuewxeboUl}rcdfqhhjjiyuzv]ig|wQp{x~fvciimt~jjvx~iww~~u^wgw|VvgQthyi^o[Ib}he|Wscux[{r`fq`ji]^`o|lerxyYuniWyupkwzjcyykNxhYvYxbbNwKxytrnh~bRRljxmxtrVufcx_sgZdl|I^qsw|llyhazupupbWKbiPlqpkatc}vzl|xXdacv~[pvagv:iyj}}b]dR|v{fvs}n_XxwVq}|swukw~kpO|Ƌy{}zfqoniwfT~iY~swqysjgjs8jaKuVZwvpke~]{vz}rzj~rm~tNshwrjVjp~dxbpWqpuuuawmsojxY{|h]Y~ejJDPpod`Y{Q`f}qxqMYxrhvqu`sqQrGy_\iflDnasuhv\kow{funsaDbze[Klufglmpr}}UUjx}|ayMun{rsntqy_nQU{ldszM`TzqwXPgn|UWaOv>d{Pc}qxo:|WMVOmwbovt|t~tcv}y`yuzmb:sUwsi}HmeuxwwwJOuzWR|^Y\i`~}lðdjhrts@l}|Fy]\|jv]nuqaovuI{w~bwRrtf_uuzzwGnZ{vfqwbst_\r}`V|Tpwly~z{|rgaX^vv~{uqsxdiv{T~wtn[xba]iqych^a~rwrKcft{XeZj\vtpbCtY`}otu{djd{|zz]bw_kw2D_y}vkVu[I~zd~q_cjys=Txkkx~kqqeU`zT[K9qt|ytjojgNup}jyl_Hg^qpasvm_mvgy~TzYd~xVlDZdsdrVeoɃ}~tfypx~{~vyotzW~z_C[aUvmqf{^u{vwq{^bme\iinUL{gb}}^dvpqyDs}WuiOC_hcwDnsxzPtngpfT[hxxysdW^wioJ[~~Rwoz|XvhwʇLgr_]s\usr[dVzygrZyutPr|lQwXswYmi{d}rjulppzS|sewnchmdhxoYmYcf|yrex~~hnaq]a[zrfvn[tttlVohy\xrtr{~oys|x}fuqz`z{\\{_ruCgul]~u}zNXxUxpVWovtmj}m_~auvZtev~y{dnytkxiguHyrmrsqFgusZbSexj{td{iqnaNwZkw[uebbTan~~ym}w|gUy]Ts]okvgzmThRjV\hztbtwso^b`OP;K|`rzi}fbڏ`w|c|sjayipWg_fk}xnwzlI{huL{}ecyqlzxCYtha{}zluwoydef~L\yhY]yjyxpYmYz{yx__nvtk~zhYyv}tu|s}y}nqE~fbwr`hI}spsYxxg{m[h5Xmnln~_jr^}_dnffjĄcz[mm}x~}w|buw{|v|zG`t[{ke]p?MPzZjvqO^uoubPuwpfNh<6RE}}?zLs`y{im~JdvL~o|șjz|aktqUu~mx~veq{TzNpexj}jnrwAmivgKuj{w[gmsvy|mw~Pahh\nov{uYplkvk~mo|pwoevki7S{tTwoVy^p~iyqter}jz|~az~xƒQftuElcopyqulowxf~Z~UgmfZWr]u}nqd|ħ΄aVrtyermJdN}s`x\~x]O_r]~r}ke{pmsy}F[DY|fxy~|Zmhev]|rDǒ\em_}~gogpSmzdlp<_]ackgtWh`U{Xrpbkhsaxa[|rof}}zf[sdvOud`aPrxQtLf{sZmucrmzhyJukgvxa^rg|>llYlxqowfetqxhO^}wsplZuphR|Psgl{H}}m~ci}srfzonnfĚoHK^vjzsypWjyoxSyncvVq\ga{hxRtLv{a}yvx͇o_mcQ[\xx}|ccpog~}yohkfm{zylwI{^`g^TiwxB\vmkTtw|SvbL~zuwuoy|mv^z[xpukul}|]|vOWzrfccQCpUyiMx~ezeetv]lCnui̖nlQt[Zyqlc}del{cXncyq^DuzgobsxXmo{]wocvo]oYn}ýwheidxR]~invp{Flyy|tlqs_qx~vo~u~ozaujj\\3ty}}}|ib~{d[pgo~iwsuɆXjlrh[pqgq}^|odym_U\dWKter^yМzRMohmx@hKs~cwWpwi||pfVx||aXd]fnKq{zJka_zqTqon^vn^tWxLtj}xlwveQwl[ar\gfvKjˠ[Qndu@xk~vZhz`rpm{h}qi}uoyt~k{zncKWOww|_mj~xp&gzsVqdhp`RgScgpwQc]p~t\u`oq[QTprVt~WUis}xzpcuQ[Zz^[yvax}}jQsEvrWrwly~bty~etjwdoh~sozw[~fgjgYvlnWyoSojuPzVzsltvlz[^KdUfqix^{v{s{C~ϓ_uNoˡ[\}iszaQq`x{~gȅfbφ|sdvUwbk{tr_q]~snv}upK_djEOnyV^t^tdb2xxxSbybuwmt~ewjd_fvmdxpwSey:vzwfbtlT{fmkxszw|ojkwkdFnglyOlěl}at7{v]tqyZhsjs`nXv^xi]y{b`jvxWnmY{uD|z[emzUSak]iu{bUR^mzTXh`^dqogctmjAahbz}yz{b`O~apvmfmgvYzZgUiQ_[fjsr~zraeiY~}d}dvaou{|yqqcyutiqs^_R\C~`smwYLsbz`|pvZlln`ndfFkLuxqӢme6eHukQ|ixbhRbA|t^~jcq{jvvVpr]oi^~dfPdirh|^]uBtutTp^wMV|bU\}`qsR2zxisezn]oтa\ea}ribj}cjzzg@jgIqc^hzou~xd}TYnooxpbwh}~Qd\g|svdXvro}vxzqwWzjq]Vjfyr]c~w~sRfy[_{zl[w_vsjxo}ʂvrVmuMltmx{{o^rrbqwqye_d^_|pqu\ou`h\Zhzys{F}z`sTsTnrrwVkjkyg\z|{~|s_7~vejgaZ^tz7XUcjfuibzjgVok;yvlbjp~Yrjȁq|p|fuizoe{[ep}txiaXl~{zsfR|uv\Qp|Hxt5ck{Dj{qtk7xrzYgmO{ydsvuzpwfuibGxketnkU}s\uxNank~joyyfvNiwxIuqu>[]bx}Yoc`crx|p|ha{gZ^z}wk}]mv|z|h|vkÛXqZ\c_~sP{qqrp~wz|dZjwvwos]zfZ?lkHv|fwm\{Dvƍal[ftdv|pc^ykar\J[fc~qCws{zn|^kfDdhq^nʊkhwimqghx`}WqsoMVMrZxmJxepoj~kpN~xttWZ}gSss}UsnkwpňzfrumkR[}r|ls@x΄ymapvjzl`yNp;uhfswuvlvvT}]p{Wx}yv{qzzՊwoa}Wgx^~zyz]o^VqkwWZSkyM|ndiXUlf~}uyӋihddqzWwrvkcZuz}Pkq{J{ty֐lVrPy]~Ndt]ō{|q|sHcdrGY;fee{jhtjws}wn`|{J{w]^ryu^c~VzxwnkUQ^byguxfFrdsejoxl^nh[szxyzRiT\tv_j`mfovƍM\]Qxpxmwqnyxbi`xwjs;ynuysm\~yd{QSc\eƙxt`}loxwoompwf~gpktyfsg]|Dly|wlҵxMmqkjm[oy`lymiØhcu_lkczqpvrrh]x`ddnU}qoX}~hhbfRwx|{ph?r_=~kEdpR\iy`[xiyxXep[Ig__[M]{rzzrUfsZwsgwThvi|zs`oZW|w~Vwj}lrKvK{r_a~|Rm{Vzuz`{amifpOawnXwqoqp\sd{wwnnso[m}baz|Wd~|fZk`v_Nsb[{liqxtwvHiclkhcbwyn`sq}ekvcxsT~lf|y^rzyEy~pvU{inzuwwtxy~pyr{lWOstirf~nxy{v~XMVOt}`yarrkeZs|vt^foply~{nrxr|}}hbqojVWSttft{xf{Mdup`dhs|z}sbƍ}~vpqxyv}tkthomlypzvʨz~o|B}W^a_~}J_mXvZ{pkvEiv|iapr|yudjlmpxirSi}`|mwrtYjnq]^`b_nIg]ts@HG|SXxge|Vyrsm|z]|gRpk|Wx~przvub_fNs_~M|ipnzg}Z|g{qjhgrwtSi\mT|Uy{me~twyrew|k{YXu{ratmj\bxTZfmŖy{|slyrfotx{pw^ctPrz}TDsgTch}gvˌpct]'ld\^XzV_v|s|Ldy]P^hm^uiPLo}heHrbc_Xjekus]Qpo>3ojkk``gagyaz]aLwwwrrr|fqaiA{YPrS~w[uz~byfjunsbyZhwnp^SwVY{<[yjvbpNudwzm}uihuzpqc~`|Wŋ}R^RZlvxvzkrhz}qkRnϓdd|[ewz{vƐiuxKVzq~yge{~~jtm{zwbtTbzn~Sc~ur}i}l;eakXjiIxcdFcTn~~wrderusyXUHPiopy^{Jrsr|vOr}vZkldbrV?x^OqnxVs~Ti`bjsviSio}hC~ur}RQFZwukrkk`l]|{xmfceS}ws~CdseK[y}hx|whoaz{^v}jnf`|Lmlbv{\f_m}^{qgq~r~zOz]kg[ssg}^Tbc}}TMpx|w_x̩Bp\|unrhy{n~mbsz{Z}jf}[kdKWq{]|hl|yqga*nBbol\|lx_{yk{jrkMI\lumQry|de]p}scWLnwxt{uSnohws{|j`rljyynppgfPj|PqnSKjsUdfxqTvd\umtsz^l^bOOvwveQ`Axozfo{lc̠bhu]Vc]kf|impquwsj|gbrUfuhl`}gfxrsFU_z`x{orwlCwpq~z{vkej^[jhxvrvQra]^p~J5vfz^Ba]`z}Yjp\^MdEzox_yƀ{qzm_YaqZreoz^glix{yQ}{\wy|mѡa[m{ritothnhmw[lltq]{|r~}ppjejjzj|dbqtlyttl_r{aA[ZP\ewIJq[tc_wiu{fvk{ydylXP~Sgs}qhod>gxhbozoZwsn~y\\jm_un|]tnbY`|y`=wJmx}sfsOmvgWWɄBipsekIf}pazqK|x|k|SrerZqyo]khtZuJ`v_|bl}kyvll[xo}nadYsvwtuhfqk{<Rzlnq_`tryahls{ow[u~zdWes_l|oNorh|w䤬ȟnq|o~~PZtk``_RKwrkzo|y|rxt~h{]cyx[y[ca~kP~e~whgwpU}w^ltmuXdqexen[ied|Yr\papgSraeu3suzfvpcxZuwmitv`lTl7ocu>Zjw~Yvnawt`}Z`sOYejatn]o|vyi\n[zm`rxuytqIhQri}v`\jUv{}}xGV~x}zVdzebh]j{zbxL`xpUe~w}mqgswuvz[cOYVjgVpzmx{vp[zX'pz[qyy^I{wjtfnk~mmyUrsyZ\neov{wdpg}1bGbht~fwt}|ylwlVZw;k_w]`jf~|thNi|FuFx_xmtkwtvu~xy|dnnfwgiYCtYyuvfzFXVrnxh3pi}lcxyFzR~gsj~{V=~p\oQOnm`~utXqa^vS|pDUv~hcf}vz:]ygvicfryuYyn}eF~|`awqiw{esOyzZvWnZboxjejwIrtUwi{]pq}SRdgU]^^[lnkf~Vrwtym_Pkg|lez_o|]yl~Ane]Ef~~nX}_p|qy{]pkodmoUhunDz~lsnazOwndruXq`~}҉aVx^gyYfh}nbl]\svzWvFrMwtjy\cfqr+|Ts|~rouqhygkfm~zn\{k}}apR}hy[yNdj{ldW}fcoOw{u}dlmxdOtN{so6cg@beljXwptpw`tOzm}zpzrgne|ty]tg`YoWkYW[}y2ji~iWb[V_ynm_p<TpÕss{tjBo|q}wIxwbib~^ux{tkvl|rSrmcsfqiyvjzxkvvpkXJ{v_|x}~|aZueuQluPhv]fpuhzbVuvXwug}ywupnz|ubsXLg}v^~v{}wytxvfnmkvs[p}yqxapzri\jrmW}|lr_QjUmy|NneksibcJ|je{r~y~`ut~d`kzgvfvV`sRb9[|LvpkxqmшxNzbbygaRgmL~zrafosO[XnLtwlwPzkdlxrf}_ilpkcjÂxvV}iah]Vbyezxzhd]yy}os\n~dszKxvpSav\~ǋye}wtS~_biWoTily{~ounsekz/jj|sp}up^]q~u^cywKcmawKs|~Jqvt}i\urf~nicjr]tH_eieo<sO}fKzww~_yuufj@]|{w}_tc`ykyauuguj\pe`|k3{~pzV"QZ;i^kwfzdwy|`rg|aqpiWsr6~srt`x[~uj|umy}Ajxps|kͦiuIclsz^el_\ktygi>dmxfktv}{qpO{qjV}|}k}}{knqpCri|wt^`R{]ty|p_ur\puZp<dVw\lkuiwlbzóq}iTnoV|viphS'cqrLg{~uwu|fcrBr.pethsGX.nlu;ctivb{wiluSsk]stewdr|_uz|s~wyWxP/wgu1ge]keqqYiw]ugl{^]mj|=8~rPwceËn}rzZmimZzewmodSTuP\ifhkyz}XxrPZV_il|Su§zWmbqyE}rLeuj}~v^Ó|iPxZugrukv\~joZwOQd}}}bsd^opz{wTkY{lf4qiNbfdjXdblfoNjlW_lvnl|X``~YyRn~m|JVcz`]b}y~lT}r|v||somfY<rfuro{zq_{ohvZxJH`qRX{}ryh`jGf\gzxY|~rVwWwzhtwlze~dieK~~o`rvuv[twek\~WrypW\dAtvavt]puR`_p]ilV}Zr{YarVjŗd{}jĖUyzCpw\Npp{G_z]MteO~xH^}fpZ_}fd~ǓeLKusVuoatdar_sƪ}Uzuē~zqWIj{Nyunsyt8z}th~x[[qvm\|Yr|tvhxslzxdkphomXVbukywvmvzWzqtyYh|{igv}F}lLasfl~|bhmzzQez{YzwYmry_ctueJyqJUqy\x~tYhpol~thzw~QxUbYKqnZyryUT`zYm~MS~cy|PpNtp{eo{{smUh_y|qhldq[>z|WYszQmasC`^i~xzteWdqzymi~yohBsy{pvuc<RiiWj{|y^uzvni^w|ew[Dmwv]]A`j~{phb⁵yUpkigyd_Y~nv{HIcfDwlwTKevm^USSxhuow{xjHDy0zasxiqox}jgyeyyiqQDxPske{QiuuzI|qlxwd}wŁbQwBn}zZzUdiy~my`mnmlUW}vfZZ|g}kwbnvLs{s}qYcgezq`ntcexqqX^|j~h{W{Sr{Qscg{yd~vxwQzxcjpf}gjyunzErMrhw_ivvcLOY^xkmtUWloa}Znw}}tv\cm~pdfyqaz\N{_mW}}ssjKZ{|uu}Vl\moz`mNvf}~wvp|sogn|lNY~`Y}i[jm`od}|s_vtg~nxmn~Z{]PyoQlqWv`V}}fbSzwa{kUjttvC|pe^G{T~m}OXyjibl_~bV}}x?ykt|ee~tZgsul|\XisVdhzfgUwk|Z]zutjZYzzt^|_vsk|T\}``pg`]ocqdt|dwWXVisRpzftnafqfaiXqfo_S|~Fhpngix~wqTwdu^eudpsx|ci{W{x`hzuvegz,nKq9VephW}u_x}h{pUoĊOVu}pa^_5~{prU`hE|z{kybtmyy_srY~F~xtkvgsxI~{}NyywYimk\|vEdYndnnpunvpv<mq~;bwrώnx|PhPgxOs@_QnHafxczkehhkhxosA¡Th[s|uvXmǝ?qzdV|vWsvrթUapzskv}oSMQRo\]|]yY\Zow`Uwmswogjhz{~|zn[m\wwpfk{`zZl{Po@Ydx~fGhr\\u|jpPs}v|rnr|hxs~fRuof{x]elruvuZz|❟jonyTt{|r_lWjjr~tYk\lthNIS]psux>tmzwc]{tzLJvp@|^{wff]rn^èÑbWi~PrAfmvMxswW~lSpb^yamZZcrp~j_vw^qXrĩdd~YtdxvZwiziu=~amVjoxfopuٖXjuv|or~}piwQag~a{]rqal{Uhoe]lsu\lTyg]owO|vxr<lv`bkxmut]ĒojkxwjJvx{ckiiMveSZm]ycxxVk`jmbhleakzjwzwhx`mqi^[zhx~v{]pymj^x}vXMg]~}|}zhOaKoXtexrOoycpdiktAe\]zi|n_uap^taevv_o\rp{_7h;nyǞa;x|obmba}Lkn{WwrvrZkgЏ\gRlt[0p~Otlq{fylw\VqcfhWnɭ_^Uevh[yx]~vfqo~{}xhpWxvXZw>{Iuq~SwsypkC}kU]~tg_eM`j~|şenH~FogvixkasXsExqo]eutR4ms|r}su_nMNYhi]nf]vtc=zsVfnrz|hmzantZ}\fat~g{vvvlwb}b{wgyo`t_OiP{n{|Rax_bavuuw`z{wkxc}uYaGssl|vryt|YsSto]`baclqQplu|hls{~vzYfr}PmVwucywyy~\z|drxy{|9vlWhd]`vVc~~_qqhQ[uGdzyMYMmbigqefʝki\|utr^tvZkzflilPYq{`wqqdylvu`asyXp}y~i:TjsoUgm@]nZyslw]aUnPhiSMyx@jrRqTRڒsQTdJjascsfoqc^zPtiX{ptU\|mgnykSk}gWfc{jppT~znq}xx|oul~zrSq`nls}kqk{]rsK_T}rtu}ilfw~cjq}~wrq^xqwT~cRa^jvfopXxlw{}OohYtw\~D_EKb}{zgu~hiw}_[~hmyQvz{~|[rwdq\kUrrV~Ziqwhs{k|gBb~Êioi~}H|mkvs[rjy}|O]zgh/v{zGjql[^ssiukTx[XM|sֈiww|QrsntYnIgwscnh}`Jbt|utǃSzynvruTiwxofzvMmu|~Xq~|hzkoXc}xJvfvw_f[Tu\xy}|Wmm]f~j|bvr{zjT]mQnx^^irwxOxl`2NH~qmxrwz[]aWbmodxlzo~s~^wsZiXl_~YcU}xkinahtwhU}yN_etoqcfrbuudĆwhr[lazwhu~{rau~NiɄmvZrrn~X}|[H~ƍnorwEjZImkmiǗyvbrorfvl{iycyG/tSrl|ljuY~vjkd|qZviy[wbgf~apsgbRFpv_}Y\vkzZ{SzSiei]w{lygEiXbmjSslqywXlrPUsp|˸oy{zsJOZsvuflqu~[z\|wa}jhomzaxgvz\qhr~ml|m|prvgofxm`fR:={tnmxxeguIyŞxVn[nq;NRtueeqvocz{`beoast]pkr~kzoZJ~|Ppsjy{}o`tfrdtwnTvanc}g}y4[Xwu\xE{zaŁubGn|fVz]vaRt_`wnpizeuco~uoXdrQy~a{st[jzZtZnBrwnMybxm|ezg؇wRlcs_Mki{||mauqh{u\Cnbn@yxqx^ewyvTVbomfvdp[gxp~r}nWg{i~e|l_Pykt]}sqfP`rhorVs`sp~l{ygnk{tvshp<pqzH/cplc}=~|wYs{mHo{c_pTa[nZi~pwou[wWhnip|YNq\w`|buensT~khkrzyȋt~FV׉XUunofZ|~xgtȄvn]~leo}纊p^sygdu~Yydtk[a{xs:ntryajitST]dwzcn^|ujtzjzblpkIsKl{}brymysity[B|xNseRvrey|nOiUrrj|O|{lHq{z^zUux˭e8qeovluQsWoyTlX^h`wRvuS_Sxj<wohu{xI{hAzZrrfoFVr\tvxjqjq|Wted5{kphsg`{u~}PekmtVvzf{Q]dhmjCu]k`jh|y]fJ|yr{tx~^{mv+mkd}o5khevrUaQoTC{hhl;tts;Wu{i}~zaQnnMRlvvXzsowmqs{=[lτ|tew~fzwzwmfxfxSu}rsal9C^gJqbmYUta~YsxnuvRsVItpYɢ{gVt|~Xxvqy|~lPi_mwszg\WbjWy9Vqklqru|uy}jRY|ffzÎdoVƪr~y[alacF|xfLmxJozxuml}t@xyc}W{ipotspjdijH̀Oigdyzuzs@MAtwDs^bzqbt~sXmrc>|cD}]}Rswsa<`V|{~dwWoeeyk~_~Ovts{yϔFdryIP}lqispgVagĄT|O~ujwbaqr|v^Zfcwesfn^yVdacRzQyty~tbwqgnrYvnmpgG~zm}it}xvjyns{t|bƚ|hmmKn{un|w{Y|Qaј[xd{otu[w}||v}]{Uekwp|`ki^tI>yycZ]gS~@\ޝseM}[|xj<c~yŨ~xXkeztvhytXoteeUvost]uH\oh[cpbysl|es|t_hfaDksvwrd{~zuf6YZb}p~To_nb{prbkzWn^Vgi`vbxfKhjVmfU]WzN{g}_y\fXd~UL||ldhSȘcmiqzi}brOdz]j`aZreaTw_tʋuh}~v^d~}~na}oLz~|Yix]w{R|Vq\M{?|jr{~vQsrs]|yvmhE{}fakEyscncogoXjcjyQ_@joWaf҉k}{t^|vhcnrrk~r~eq}6fxBk2Ggpbmfje\xDavyWSutRjnwq~omuzvf}qzqvqjaM{:xm٘Ěp`v|Shp}fm[yweRmdZwiocqAkmqnKX~kWΥdtjh~}fie}of]lwzYZuX{xxGcx]{fdwKq||syzQ{kxerfsp|plwm{SZ9r|izMpxplDsxq{j~njOvdk}q\hgorisZczyn|u[Vlkvcdbe\deXfl_z}io[SycLXwlp^}jq~z~nQ|p~|rgxQ~IRtnTloRwb|jhcsU_uZiL}dq[rlWqWzefxwohwY]rysSayoSiH{oo[lthRsZ`jcuvpoO}xa`w{pqc\L[g}c~kiKn^{jd|zI`n]xggneptTF}nb_`RnwfzaU|zX}}jp|~wByxPzn}_7thvz~iu|u~N~eztzstkcʌysfkBmg}\wnz[SxlWzXzYx{rovbtlg}mbye}Mr{mmx\etirioyz|sfhvlTu}dpheWTgnvuyvcxbho~pJmetrR|n\ekzryR]uvqwu`aYWm~qyjfQr[}aVf~Vgs[huv^u`xz}o}{}z6G{wzmy{qam[{y~pbqv}uhvmcS}}iq}^tyT͐jjdw{Rh{nzhgk}tIby|~`v~bvg~{m{l`vXggn[fDclv^p^iHm~l<eexf~|p}aȆ[u_piz{`bp{sqrwizlWh}yH}|fog6{wl~qzYiT~URxuwqgX:ib_~_mxmaHo|o[bmK}`|En}TUzv\^xl]uUonFps}tdâTdve{f{oFbh~zno~p|fGhfx]bc{u~m`q||^ijvh{scyikauԒwxZqeR}tRgf[owNXzzChYzexuyzyrc4{]m_{KpsuxxwwieWqaK}^KoNg_X^}htmo|RkodsIovNdz~Ts-s{mr|sfWXtfzb`o|rX҃8k_ubr_~wV{h[~t=h[V>mzy\t~Qr|pdvX}Vtg_Nu{cg~xlFsmiZxk{}bevqft}lҢisk{qzgsyKnsfpyhy\^\y^q}hpezoqt}yrz±{IouixsbrvkdUlxvJr}ujjTmx{xoz|tœzrfgtu[z`~y|fhkwyNauyp{brlzlhs_`un_qYMh|jxpnbvyvh@`gl}˥mmr{I}UkzmQQ[i\jrrhvigq{xoXM|w|x~wvWhdmgR^u{rxY~szgbopƘfaytta~U]\ntdkW]vncy|}qp`{liwlOnps~[pnW^n[n}Uwqe\rvryf[e|lv{SfI~pycRihzy{~~SogvUwD[nt~~~pr=jo}f}nUkvVhYdWtxj}bm~s`τovZSzsn~Tlex{wxp_}|kggqwyzQ^sBWfzoknp|gm_ioxdwcvgm}_~mnahQJ`o[mPiQTr~8}zujzO\_r|wpnu{}cqvukd{uw}mmp^iflbhcms}bgz{W_|}AZjaigtmbvuzMobkzxQWJpgqymim~jgf[IC|cmV^q~YBQtoXoGkN}yntkxdzddH|?smgz|wvqz}ԀrVSkw`tqgp|gv^]olym@}IP}suR\_MoPibsrozUufxqUycrv{p{^oLhWhNp|auwbw~דawm|>z^wvvqRoƈkwX}xz]Rcs|ùfsTulaYVQcIy~br}^KmW\u}y~c{~rzd_sv{k_]uett|k|qzSNi}_jzVxhk`ycjjvsdlf}ʌp}ess|mww`wewwdtymQxyz|lswrWl{m[pz~qmtXOr~~yrhkmSi_ss|zbXzbUnxcflo͇XLswk:|?xymXwqmyijqtnM~w|Wbnxzentxtg{ce}|Klt[Xstmugbf}\imgw}XaWXhx~tyXymj{Vq~dyhXG}UJnX~zY\}vti~}_qud{nUu@a]V{vl~wUlovo_`q{S|qxvu^Xnxooqwe?jQrr|jjb|x`hѕn[}}zcxR{bxZ8wgMwuGrFfoS{Sknnx~rg|arhqynefZwq~NehmJZ[Fdv}{r~A~b}ownssf^sybCtZ}}|cvjPYmblflkvmp|ntvsZjtkrxr`x\}`|wSKmVwVzrRmp\wpwxhMjsyuf{oKtjkmh]^syyw~oq|wrb_\hzx~lKqbxkvl]ywJZml|}w|Sg{xgfw_΢d{}u~f\r{u}vx~klvvSBphq^u|excVtWrtobsy~z~pbznyǣezo=`^s`{x|~{ic|x`bot]kkyv_hd]waxudr`H{Xic{{mpeSKngy|jrXr[s\p}aqpx_`s{Lrzvi_iOlywpqipb\zpweO}}pbwlylRxydsstpq{tdl}]`[gt]8h_zgyRsqynp,iwzplvtťp{zzLtb}txQekwvj|nxRowoz_x]baEitUnWiQKcwit|xbi|{ff~Sau~kdYy{|ekpk`\szignxwtT^^~]cE}s{U\{\SVVlmX^cohyqlTMwjK<_3}plq]e\Bum]frc[JhZ^uym܃i}gzThbsWmbrkmMtY~VyffqƁfgN\w|vgauKz}zltezzmi[ZvZuÈfhU{}im}sr_ir_ezqjorf]tyuKliy{nIv^co]wmlwZ`M|W9s}~Ě|{zy|dpZ}wz~̆zRvznHxXhssaEqToqyt|~s}׉|ssjuzpSdol\nujz{yrmwdxovdsyag}~NqhFnâk}aphzTu[WxkwkxÛ\|F{}\]wnoUW_TenrunDhYxVvj]JYccsgpe1pYsPes}ny~}yop[~Vs~c`{{j~>_Yz{geqw~e~dkq|f~WscnawQrfď~yz{drwkr{wxhf`l{aWYsXPzya~\]xj{K]cyseǃewypnv|{\}kuuU|~kliuifjZnsetlIGsrhXi`Jxv_TÃj}CyyxhMccmjg|Nwrzs|hnfxvsd_wlVm{r|ery_pv{UxlWr]Aa^iAbzUwlsrk][nS_shjWfezqk[eyr[ev{_Zp{Gywz@qc~c_lytm{\tpQKpvYsp<k4gpbfry[`]}rtm{\PfXiosl}p_rrmj\bffQmzytjoruuMajma\poyN~zuvk{|p~iL}xtplqcaNy}`~eVZ@\QuoTzkswT|v[Eztxb|GzveZjVcyjnP^yh~iwiios|D~DryRsNe~UEs\wy|xuwXawt|nx{c[z{oymWySw~nwd_eZuhohYxo~owC^wywfs^W:yw}[eZrakD~|[N{Uhzr@N~\q}xuzb]swvm^dr_e_whOrioyoth{bf{kyhvpCti{mn^~tP;[\y\Moqo}ajpVixwo^lULl\elxjff~`qi\fsuY}~}pA}|~vhh\kqzUxikLb{~hfve@x}athTtvnmyti{˘bxThvtpj^Lni[fxjsobytt~nʅnYv]zt{xxmvlwzcbils_HsW]fykcppoYx(Np|fo^nve{aixgn{eFXɦgfT{Mo\{}imzx}wn{d^}TZf`ms[]T{ydziuqzXsahllhxGnxnZ\xv}ho4kp|t^xsDomyNXdM{prgNpso}LjmsРJ`k]hp[w{tnlqkcvKyvs8Z]qn}g\dyy`j`m~wtoxe|t}zttqegW}[hJjs_oLoPea_X{acagd}|}oovY^uUu{y}Kt^a{k@bPnfEgqeTquW|kyO~}m^s[rQkgfzyqtywaq4CpeVfT}ux`yfrhg|uWeqmt`v|OGM}m}_qcWqb|FwwV~JtokzW\hsrx{tZ_i]iZ|tyZkVSdtm`cwSw[IahsponuwEqwzCa[mqmntk_zs`{~x\vvlfqrÄ`~ezl[n`nm~sjPyG}o|n{wxuvӇ}~_ӑiasfJzlByŎw|vsuo]as_uPJxrAdl{~ut[fwmjxEWhnlqxhpa^viewvxksRempgiuvjje|trFqspwvzikwut{e`cnMx}jYq}Vzu}B{i>wd_^ncO~b^^lzn`osPupgbze~z_n`YxpWyh_}{boqZzeVmjtw_{RXffevzyssawvzgqrPHrobOTtbxsxq~_Ilt{Rvxr>Xpytlcdntek{qzjZlrSxyYw~ZXOy~d\sgx|}thONwn{yjnaXpdwNl΃~{kZYetaU}NaztCtJqwj{{v<ycMicn{vsUzvm~x~EgvS~jzmYi`msjTXiusS}Js}Wv̍]ywxV|]swWl{p{]iX9}fqit}Ztki|sdt}onqOuhzroQ\ys{Tyrwpp{}`slsO[dpuysUrQdlveud|xy`~ibj]~jaFsXwa/|~q~hj~g{qfqlwl~`kb}l}[zudj~yy{nmq{}\wmgqlkxn~\wSAznsdGzzPkYHgynxqckphuyA}c}`_\uxxvzraapn:\9pdwmjqy|xwcdrvlxowHcs_ws}do\q}rmvw[z^bw~}qRhpmSxxjYwboyi~p~|wrLvceknbp|ucYTu[Xcw_azn|kmbGl}8{oqXcjhs[zww~ni|ilosjgpOatq~Tx}qM|{~y{z~qnmvzbyciptV^ivLlsg]YjppfrkGkEjdj{s}}ljyzjkj|^qjVzkII~rfzrǟvj|X|Mtȝ=bfqsewMbzekvuZp\hmc}fcii{Tm|v|l\[tjJ[~}sjiTwKwfr`YTyr[ktwUrWksvh|ekolXqfwRX|uftGoutwToZ|bq~~rxiPY}vgQyVl[qd}iy}zgnjt}y^r}n~t[{x`oMwm^lv|ykn|gg{uz`h\v~tjz[xmqzbzsNv_^kYyM?zN}zHoj`s`nxnf>~QjcKJmiaaq`^rsfi[|SkOssg~ggxgmr[w]g|Ca~UUxxrlÎnE_l\fw{Hg~~u`hxu~whdqshxn]|qlOls`u{vw^`yn~|xJo~\[Xslxzwxnv|Qlc~|g}sswophvm{O{ub}pwfcdiukWo|dytFrlnX~ihmfgd{ajzsj_k{yi`wkrbpatK|Vajqhc~myjzKlo}Zlyjzvabtd|uW^p`gmxzqy{ctv~s|Porplw~vro|lapmVj~szzhicr>|{]m~bptz`k~wFf~Ygt}YZNyoqrÚ}tJWu_ŝ|c[|cw_lexe~}iäyqygyjYwb{X\epco}vw]skVj`Pm|ySrdsU~{r}f{l΋Ruaz`L[zg`|zb{yue^y~zavozywqrwhWQ{|~fdz~o~hqpb{f^p]wZpxWz|_r|mu}`hp}V~~~awyh]Ohh'qqOwvruOsv\f]OpwfgvV\vauus^nhcgtzay^BepjzjttkYsyfv[n_{|<Zwk`xN^uo{iii^Ik}xf}R[ckrZHhrst{ygl|w^Vdutxi_zCuyOvrZUlyW{|sCgPp[zgn]{SxRmkvLppva{xzeGiv~Lkz|fyqvv΃m~}|a`pv<qi{|e|tR}2ia}|vsq]\ezsZx{q{zxn~śPxeZouBzYr~q}XsKasWrsmSy{Uog^lrZ_]}Aynuy~J|;ely|x\nyqgVo~|Lrdijupl\{_ht_ntufUP[xqQtjCbwV~{qY[vrfvyTpmf]_hj}u[yod^gk^swqkfWu|jn|by{qu{hza~zM1UgmAk}grzcd]xCp}xY`s{txq>y~kuzjk}mU^izu^}tgw\vyFw~|jUmcnw~w{e}ri}qovLtw`qu}̞}dpv^fo}nt\V`Jqbbnsbq|}Xry{sajjjxd}cgU~kUmliyqhfltrXuCf|UaxxwqJtlQyphvdnlj~cvrlozvUpj[zPWujiztsof~VK}tblv@gu{~\duwznpi|z|qy}|]Sux|S~nWrb~Vsrngi]~i\_TzT[{Vtlshdwnm~wbuT^gyjer|[mScfl}d~a~o=uhqsnv5}r@{wcwqhww~mpse||o}iE0xuc[ylefut~mz|bgpV!3sJf|ulfjzqmqdIl|uyYylj]{lBadlduqzonRIY{g}KfQF{U`\}S_mpe{~~mQX~xŁg`th`kppea^vSz`y^xzym~R]rxR[~I}QxouPz[~rkobPnP|f[ZdwsjXg~pT~vnhwr|yo~|_|dndqg~}oÒ|tOɔVmrxKvc\yxWf_iVw{sw^XS{TiFno3uyhhvuZldu[fyzevh8ydx|pWYgewk~sccdxqcoqlfCpw]tmz5jh\vqSudxbwarw{s~yqfpriNQ}_ƚY{j~{2_wpbt{fqguTAmkRmyvdx~wqm\yWnuxdjlcmbywP}i}c^|zQmJsmH|sw`|gwcsdr|]Sgu{sc^2xuAofvroqnqFlexWT_w{Zqq{mb[rWy}Yo|ivZ{|afs{z~{hxuogq~uvjthvzyMsTxXcxZ_VepQS~ozZwt|stmxQmq}[~x\ƒmjx]uip~Omv[QAkfcjI|VɄ8umq}gedpT{inbjSnijtbm~mlbgoxtnvair}ktwYGr\Fwc}xq{nzx[jƣbe~zdz3kjg~q{|xq{lg~ypa}yantt_wkzQ~``~jarnzvis~YfzBZX|RrmS`hRtwsSwuymsg<tnzptQwi`ombIŊLuwjeru]Pw|iy~neh^|ucstr|sXli+gczu~u`^g}`w\_vtm|v~ryf`PRYdfkkpkxwqmk}lt]q^fjaSU|nq|ey`x]ey]bad}~rlcvDĳTguyOWlulPPXVJhftY`iWkuwh^~x]gՍsqxh{]youkHuvQRkuz:h_duvkzq[m]gbu}oU_zjus|mb}hvmZdmx{e_ucnyaĨrcfbrzry__RZa{iRSoorqIwuirgPm~x]lygaYbnggjptruR[{}{YyYsxV|~\|șTua}g[SYWoPz_wReq]}~uyJ~op|yrx[oxMjtv]ZljcqxppmWptws|yygyv{Yglxyu~zpmx|hmm_avs\sdndvz<pjaYd{vsk|gxyrf[^rr}~vZNbVpzoziesuhZs]bEvyKřwly}unCng{}zm{XfwhqnOůnviSulwcax`{lkY|yh~ni~ESgxt~vl[bjkm~oz|qlY~c}vmK.b}{v|}hpXx{vgk{bhvv\tfXWldhGk}pv{vqx}TPd\rYY~^Yus`rpȭl|z\{dcl}[bPjsdwcirsqhk]s|@jbusw~TstPux}}uyz]eJelren^fcx}Yn}x|ifQUe{ybjt`v^}w\[butr-x{a]_vWAvQs\OEPuIuke]vTpTujtiJqN}olZ~lXoygqr`gcCixvtxsu^n{Yao{y},g}{|e|fZy{n~juhrӆmdvezN}]tjmC{^|rkW`xt[nTbswgk\tby`y}jfnrktQ>ryfcj7kLonag~dPpwj:kgu}ggjRjbfzsok~̙_mf~uzns[oys~|ósblcs|rfjmdw}qUwrhiikjJY|scu~ZhwYmEauvxav}yxwkDNpmshauK~]~lx\r~zg`}F}maTtLMgw`IxCnW{dao}{ougQtTj`v{|}vilScuJayfisN|Qzz~LxwCXy_WY[r`{_]`uLvipvhZgshpnhZugtc|z~vqr^vquhnyjwHf|Zk{ceq|vi{Xd`trfllVu}wisutgktylMhnQSxlnsʛ`f}|lnvh_m{uaO^ahhet}m1JuSxodU~yf_d\Lufqvv_TrzQpGIxkz}jkysvxtP`c~|l\cs`u`jtxvbnbvtrj]Џ|r~p|otX~zwf~os^{q}|wq~xrWXcÆzwUwewph~qWkjq{{[_L\m|[7}iSnvnuRv[zsisySxmXezix|S[X`FKu{hh^Ttgdf:s}Xi_o~tpGBT~^zvװmx|dz|pnlkrckg~ges|6~|}\by^xrvmgpVw~bZIhfkulrbuWjxidQ\n^z{\bvofxqyqa|}xhrielIMuZ{wpQwqi{dwoyunx~kUXjdo]aeuFPwxzb`rrgxhW]ENedmq|z`bYPqnvTubar^_zejhw`mw?qkw[Ueww{A~}|riUr^uvY}gEt{p}zky~ljqpe\kkTXYysjmcdrz`onl}soAĊOQ}Öd[vg\|Xluysb^L_ui]NOlwXiqodh}{}{xrfhtz[jSvez}~ur][wTNgjl{Nwy?g[Nuh~\tv}q^tYm4a{ŐUkh\ohs7{{yxr~`YZr\DapbNMy~}xƍv}tz}sg}Op^fQs[uprc\uma}b~vu`ljWjnrTԯko|nuUvkvj`ZxZhzxkfpQQi}_ueac{rla~i[yRuBu|WEzykz4ypae}fts{peyvndKnpwn{o˅~Gdrdj^gq]h^mJbhfbsk_w}jicb~rltUnq2u~|j`clpmSfhAU`vcGvpymtx|_5VRnk^_vsb{yXZ}Vs~|ksrvRs}g}vuxr{zvuvZp~wxgmywoG]Sxerounnyuyrrgibhut0JW}]u~qmq-«mX`uvtoa|vtduSz?B`SkZmh]Tilzrl~zqmgpySnlWwP0A~}~}w~~sf}tH҅Z-wk{LpwteB\etOsSndrxr\u}`_W}u[sd\T_q[Q}zonuZozotoIj}xm|awZpOqd`^m|rd}r_cMcn__cz{}Ȇyqe}J~gHgvTql|h`XUwªbjb{W\yjm[kj}n}{ySbQ`|ftRN|D]x|r|Vp~EX]c,ic}\{_\sI_P|phhGK}ot[5`ԃkotUa|΄xmxRNc{U^rp_idcjvz}]|ƀrnfors{pwd`}ds[utmg\nl}xQbsr}f~nZ{qAvP^yywqqyrsYvZvTty`ottvWfkJx\y{mg{7aiylssljY}\S^:Yc{ieeusqgnv~PN_^myx]o[Ygp|giu_ih4x}xtb<nwDhl`kthvohKi͙jؓl~{~ft}@_sxr~lb}a|q_xnxgxėo`vrHsToz_jYlb|`i|Sphsugu`|kxx|^~fszw}@hzWahyVx̅p|~un`VkT{vouf|iew5~ttǓu}fccjvlnxxtvNnXrj`g~{Dv|way^xi}gu`f[tpwg|wqox}ruma~}vqkn~u|yw~gp~GdfcFXGt}hhi_K{rcouW½Ghdqa}n_vbYx^oLXTduJV|zrp}VvQJfm~wa|hlIanuŅ?zYuwzdhd{q_d|t|kihz]bfpx^gW|atpcp~_Kxf^utiwkse^Vm]nfScxi^mnf"n?movs^u]p=ȑo}r|_blzexyKp~Etemd{_\vT|Ot~D~}`|hQxv|~kY{g]G~[cpjPR͐m|KzavzzsqzNmxy^eoaQcxw\my`]ːl|xc_jskwwxLtZv}v>khzz]x~yhsz|`Pz_vTtv~ia[umzspFk~gbYvsv0nnlfo~iqTqrxgAj[ihuilnrTqpuyv}tSnm]xdvimy}kfog_}r̝}dd]~wuvyY`}}vaDVqqnqLrkqWgy|Ƃ{Ss{bgyhbh|gjwRyXojŅ{I{}udvekmvf]}}rËXa]sB]twlrsY_~Yo}vamarrlqsgil{xMğ}ttow{mlyVvarpjdqqp{WQ{rk^vmYekudyqUypcuddxBrd~hkpglYwQtO|rmux~LmM`~Yge_xϑatz}yez}`tb_td}dmqixxrxkiouEjuZz]pnGx}lgbpxlwqS[rsk\Zmibsal_~yhe~Ky|ZJFzsw|p{owxO_m\zgXS1wR|ZapjlswsnkX\mlWOmq|Tk"emxpqA`r~W]SMkNXzJxgZkSdzqwdiBd~\sX}tpodoaz[?f\jrnA^x|m}fjzZwrzcyW^gjoyxi}w}i}fi{Otw^hx{Vgƹt{LciZdasS{~YXMmv}ai]`~}s}ucxfjtn?ǣKzlqns{Nou~_wkxjZueBdolinu8<x|wJfZcv}yrSvvdyrh{Fpfvhftekihoeu|_yghg|{jbZXRVtQHcJadgpTMdr`PS]dcgqO:ikPgWxQqtcuWrrwvqqa\cxnZvs8gvwjnv]U}\r~`MfU|Ws]}UVtOVu`dtDmX~voqSbkZ]{v_{TfYkzYsicxVdXonmk}edw|SŠiz}^v{}lM~}Urs`|opUnj^urlBWsfoɾXdYb{meq`Mn|Z~K~_Owz_xkbaqj}^zF~pqin~rtV[rgm}IQls\RwTagk~Ǚe|Xkotvduc}fp\UPFpTozp|rPWiJ|Nmj|ovg[qXuvuovjiq{aooÇi|ljVmH}p\zy}Gqt~eñggltyuI{frkmssNZn[gwsUqTnZ`tRls|qgidXMxvbhuqz~yW]h\LcozYwU|Q`~em_K~|]yOrsg`Rze{mz̚cllQ}lufwsftwOfoj|ntzMhqcxpZtlir{hwdrm^h`z6~ÙqL_|xlzXA~{SrPrN{yl[{__kujkJy~nr6p}Pzwmz`nsq\\{^`jn~w]epwucurcfg{l}nmcv`][ua{Gh~tIl|wl\~eIusevu^udy}iuQ=`|l\}@|wgoviZz{FVzjyyV{UzrvrO}qTi}p]sewi~zuVndv`æzeo[p\vLzu}ovyplbs}nfsvYxQcy;[pnfmsʜRʐsdxvnVsrsxix{i~vtjgr{azO~x}oqtn?V_ZxrwdLyvnHlc~iflhuty`rHsxYanxiaz6^wk~ot`bqcba`Gn\z|lug[fc}]icXzVhkPzqwn{npS}hLejqvxwdNuv|{{~ifHzgwja]RTTvd||^JjPÁxpbkofcz{V|}u_jdioyj^C||Mzu{ryxs|}_wyw}ydYfo}bmcxga^ms}dttsqsUz9jaeWlz_kv}zzR{{t]|Vywh_iwZmZ2xs|jIgms|ϑ`aoiF`sdisfu[Rmnv׋`_ua_{~yuzf^PuxuzU˅sP}z`o{m_tkn}{h{{rKdnf`~wwutr~V~malinňmsvsjmquanrko@wD^}urmt{rxTijejr|l}O}wkyzie{}p}muVgav{_qZp}dPpj}p{parXxrZmOcjh~sbRzcdxa}uzr}bp|c{kdzTshf{kZn}thB{hnAsycVr]Viqgt_xs]u|rinSQvh]~