f||nhvsu?^hIydvdsdug~ImeY»i_fkkBKcmfzwqtbjZyNoaJojzgwhmjk|wb}yNywepY|Wghxo_RG{X~9nχ[wvN_j^jZg{lMosJUÊzsvcxHFgumdqg~oYusZ[^Wlx_KhC@j`\yĬ[wŝts`H~h]n|ikn:tumnUyFYAktXqwz{X~c`qxZ}~rxl[brd[zr˜id[yːzft{fzmwhlkx>dGmjnloxidz}rcmccv_{]fl^p;vbqlf\r\mGUdqzh\lmb@COSm;xmzSf5By~qn\RzzV_peqro}~X{{uYxtjrujoeXPrP^hs\a|mKj~b`oon{Hc{xngsbS{kY|^s>SYǔlU{SEhyeMhdx]pknp^Yhlayk@?Ktywwalcrzt_}cPRzwbbslzjTvU{v{qygjZmg\A~_Y~{nZS\QIqxfao\jpqOVF^r~sĈdX\gqW{dk}WnGeGluscRwke{y~bTkfpiwqnBUĬhlrOoDbqgwwcy_|e^oXHkRnsy~_\gySkOhsz[oYrmVg5ot[kCv[ldw_{tisyxiiiw$_dZ{r~ctpmtyrtuTYG|zY?ht4PkjRegvtKnHPVtDmEG}^Rs~ytucVfw\jvEue~twtskVYbbdqN[\P{JuvnV^^q{$jbtwim_ngtЭpp\eYlYnq^jguhwxrJzWegumQ}A[lxzx}u`ul~~:sp|AuzmAbQj]WQwzOdxLre~\bclBetx?vzztRTfhJjbЭ\Ci]~}_v_Raig~fX|_nkr7Rinl֧UUX}Tis]Hel^Nd`Xk{sriymzuvDsjlxt|vpsWRx|zet]dp]`tONy\tCsskeck\ydvnfQ{f{}qvGr~r~QvQIiiÂrif|]Ohn0oZu:}mpuubNh}kq|ysT~w~ds^sFdb]}m~\ejm8t|kQIgxehwe2UW|4Vjh[o{KjY]jh~lxr5rm`lLU1vNkpai~\kiaatT~nt7]XztlrPunRqIx|qtzT~_yk\bwugxr\}~Ron`v{whU|wpwbzugtntl}cfr||]guiajHDvzgOpnurawazNjk]s{mLlBvc}Rr~dNĄcWuykORtbqh~WÍ}Lnoq]fTx_|IeuZlza~ vOɕK|~2l{PAyogG[smbrz8zE_`BarpeY]^twvjazs|xrgvyj]ewnƐg^5khs]Weqvz~zwhitgxw|clV~o{v}hcpenTsmx|zroP_ZZDySfiRɛl~uqkmyIzjmypdxŇi|~xvusɄax\̰u{gzlzyLOdfyScsK{_luWqlmY}tevS£Lobi]^to_wtmpq|Z|ttxj~xYj_0sddnupzybV~vSo^x{YwtxvD@q_ݰ|u}]h|UlmaAiohkqsy^q~sxy^}wVcxq_d{sl^zxa`vXVaZyeyd^xsoJlkvj|ͤut\uY`VwvypddyZxMslk|Tro|]fgivsmaylg_pz~wQrnvZyjv^s3VBvngbqWW`]\͔SrokvFpad|lttWkzcXgrdFveJmlM|{^zd|fyh{DibOkJ}pFb\r{L]jenzfjaukfea|kUoxp~e}́pqRyHhawuëW[Z{cgwzkozP|bbn|\|[]cnom;WpcSGphrsvX[^wnohzu|YkTylhmmɡ|xwcttktg2w~o~wou^ks}WZ[jw~og}gpjdXVȯYyuVjwhXdBwtlaed~ϸ}a^s}sҊfyixWkfwPzSL~~>#epluyq}]~Lnp~e{oiy_AcTi^rgb~Hko6`~qy#~ehtaчmVxarswrj[Voڏ<fCQvwc`/Khlۦ?{\Øq[wzMhCMk8p|c]m|d[{yhDnfwsF.fogZfSeXzP_|qksplbssFhnwjb|XZ[*PciXhwpks.T|xJvteyjzlQPQchdvoyO^gsIu[{|vn^c@uJjZYXzUZQar{Wuom`mkxkc{?}eye{J{eWLcRPpYZfрXVTB]T7f`wQiYvJqM{pM\lvYm{x{]hL|nOrg{`GkYC|rril~m}ulj^muvl|masic\Mppuvv|btC~`xrPxW0ZQrn{JTxM=_nw[ntsj^sxd[mf|a}~XRc~vOudwu{ie`gcfdwSMkbglkf|et9Um{cnJwduMq~q^gEI6Ahyw~}iWgdeWhEokOky^jwb\`nwaOxa[?ŠeiZj^y_O}}|ejīum_yp~mtzXjn\p;`|}u}5ytxj>qfqmuvfOyRWgqour_Ɇqz}@]gaQrQCbqdc`]l_[GQ|YGcr|EerU]x{?fxmh[m~iohog^\xvuui{snjrf3{]stLnfn9Vr{nVlUc~w_tt^eu<}~rgowUZ~˝wievg}>zfkqcios_pjkuqe|n~t_?lKV5Kwbz|ZjdJ@hv۲{lhpJun~4xl]S^RWC_hLmvxfmprfqs}}yu~xs{?i~b^yzqC^pbnif{fwjgagDkƎRPY2up~?azQvh]zwf{u\^~sqx`qyo}k{y}m\w_lVxfvk|zfZwTWdkem[Zl|fȀbyqpwтXlf\nnvfoQv}JqWkfj~Fn@iq_wmu]ƚBˀDmPnxkuvIwOra~sVns>y]jo^x_QX|b`qfsshkwy~qr܃JrTtmtu(|jl\lbbYxwzr{^}?xʐ\wuGs][[~Uu`b{]Yx|[^}|sspxfvzPytON|Zy~}s|Wv{~ovzwcA{tjdQJ~ykj{]i]maulzpey{^[`[v1YuowU{pn^z{i]pUYfyy_VeyO_Skrcz~kOfrlhd]rpYwp^fn|[qic\v`qko{XR\d`TaXȆceUYaKJ{Vqu_IfyuTrc[w[~i^xrErQyszeYZs\vJh{pzrfuzhJkclkthkPq{iUapwzyr;ilWYdyKylLwedIh|ZzjxnSKlttv^AfWJrzsy[MyYxUiitNYfdr7oZmknes]\bqn\Pc^^qoeGzZxnU[kNmzt{FelVjywx~bWo{gOo}crr8n_{ET\ɖBbrmctu\SlntrtoexbX\{x_el7vU|]au|?k{xgR}l8B^lYd˶ouUtMpozh]f_SNlzkZOhb`^wjx`zxlˇmjSAXQW4dTVPimuf~RZ{Nqby{v~q~igcpQDMKrl_q@ՂUYB;~|cn|ylz~ml|}tb^px}ynurmk[|v;hobetwgmlp|vWzy}n{p crsn|sreH~~Ne6~yp\vmXi{xGeTfMiwKrvrCtuDRu^rvn{{zheq^Djrg|moqs>cXyï}h}mvt|p]Ulxz~]lH_vrca^`D~r\Sv`veSlWX_jc`Nsiss~~}rgxyb}Urq~edY~ytŏ_uzcZ{[_v{n`fs]nsO͞}sFne]nujsirz6{[fKzay;GZnhWoUI\ʮ3r{U}mq^Uf1tn_kh_ma~w\b^rVwXek{pkvmhqcjk|pzQkzqXEadwsfz{zxfW~Yw}lL]v{Yb}Ƶ0\gJyht}^P\qo~et}ZtLveX͔ZoYbxcizkw|@o]h`rly}fAYxeQ|oiOswgCykvfkVa5ap=nlbBVl~^v}@mnmh}ҧop[gpaXzPfsxxpivh}umNdk0yrKd{~{txyR>_H]|^JjZOhlgwjՐopxwlgxorZqaUWlOerk{ZCuMukqrr}{xawʒRFtv>vZ`DPbzoscv[g~]h}}rpwK_Evgm̉pm}Uppfk]TrR{liu^)tufo`fftw_Zqe*uuzpDjpqnLwu[vd{SGovfFzf$ZUncXl~:UmȯpclmMObsWvX?wOzmq_ǪU_Ċth^o{\lvMZdHvcrYyIewy|Ypsgro_SsB2WzkxiVq2xrZ,Vy84^KĶggjfkn@XjcI[Ssh}iwbqUSnr`ww}oe|c~jtktj]ک[~iw{RxM?e~qluO^gSm}vr)`OW|qh{|]u}i]VwÖ}YyHzp_yswU|seWx]poimpRwr}3drpv{vt9Rf>R`~{wIryjqx[9dmgsdRu[s9FhlP}qxa}xtga|_KVXmy{lZz>}|{k}5qqnwxxr[efudT~yc^Hb{qt6iXdiirFcTF^j:l`Oq{YnepJRs{CzZ^}rANGcώv}hdep<s<yK_{WXstd~[GxE\easvosvXa_kd&jfrfn~mj{Pg\nmmmzbld]}f~]vlbp\Tu\qSIPpZw^bsqwC|>u_^vyvoS[iprin]pwlp}#y`rr2KWbycj}mnzm{|}xexjmţTy{dpcTp~z}d}}nZ|Sw{TdqyntMyborjZe_[{{MeXFRvi}^znjkxvsxtxzwy[\|Y}rmbLrV`w~t|lBy/[}u{PwzvoYaozqcE^lbshxnYycWvDc~kԧvvTfHSxcOzt}Rs2~WxQwhlrr\_c~^{}Zu^lo}R}}zyԄJzQtWd\pybwfK|rTj^yvIac]WRx67qrt]DxScp@{~bdut}s^mqEFFru|tmgp^nBȒ\zQΈ|QvhTEblZ{{rjEpqz\lF>]pujv[_N]xX|~ut_h6wm;qcz[cyy{myk}fjvne_Dwxq{abIzn{]XuzwxlZAYRVnvy}m|ErtBcSfot\}GqvWVnfrxm7x[m?wwZYzrj_wnXN{d\{i]{ma``jntc}sLy\vyxhq~t{CSl3wq^_m}}pfفiqvjvH{x{xnBvzcyiJ{x{EREfsh\v~tpoNR~uefcitiyԑcxgwWLces[FOiGg\u}co{auuhjci9VlZhG}yvpc]?z]sqq5Yɣzrhlaxxdvl\gJ\|xWcwXJh`kacmvOkmwЪgp~RkʪQgkd[lmt\hgm|vEtt]t;xij|ueumKw]n_b;wvc`lc@Zyafgr_^UFw`cכS{_7ui]{v|pkpYvkdkfql_{x^]xb~wv^vwlq}|ew~{pxayvtYYjbsI?wgJKL}}jsd}g{iGHaNxuyai[bRdk_[k=ppTrumvrZvQhpoV2loL|2xqrBr8pmŅy|Tj獲hWYbp]gz_k]pmtxUKz\w{j__F|rTKPz{wŞNhMevhqB{qjnsnr|c|w7GcyYisf`ckOm_O]VsMwcmvx_I¥[e?.syǦIe]zvyrxNyOpw_{[sU|z]vu:_nv},xJmƒl}|\G~merQ|[nqj_;qy}rehujn|c`ctqpwfVLow~Ue_}|_Dƨ]~~gYa8Rx{W|infT~QjhwjemCpv~}XVPj~sd3tsZx[~{fmC?oo}nP;S_dVn[rv>}|csVizyxMWGLl}xVlW_z{c^guriwbsl_vvmoiLprxYv}WIasdjneqgŉvejpEhn\UmH~|oliij|awl}{LeO^}~vitՏtm1ynXipexjld~zxeMztifq;}PwUrgmsXiXqv__ikx]vxƋ{q[nsyXxydJud~ulnzfBtAFMtkV\owv|yrdQdWƞT{w{{Pe~xuewd[zx[twtPfqmQzFdioz_rXiwkpXe}Qh}t}{t~p}g~qjs_t]kfoXx|yiY}]~etfmnq_rvd|znxu}|xqut^2rd\p~~Lp}~zsuRr}c,]fJe[czJfDu{mWkn[jzNMhA;PVtmpX~xqTjBmRwwUp|bkT࡜dersk]ecWzEuLzc~\|Xgnjc{fhL{t\~k<vcjhzs1whTvleRTrzpBuKwzwUnynt{|~typ?kdO}eyA9oLiKuu~mljt]TyMysVjb}stvEn~zEqv{dmlr˯ykqc~|_UfsOwz\^uwoawsvieYL_^@QxRyqsIrdUbyluuqtsb>NRyzĤp^wHzάnjjo&[qyJf~cOrdazkjp}wRo~uixRlUQy{~x^fmWfvmZKp^plpcgm_?}mlKoЅYdeaw4֑Z۫pp}qgkznf}zH}ja`z|ubS\uhhvL|]~lCoG¥^VUljTmzHTavVcdoƛx~M[mmAafJx\z:jVaΝn}mgmtKjlyQgOm}oc~di{o~jyizXOftohlzno5pkL]rzls\|H[t~]rzokEhig~ko{S~wvY}`hDts]Hl)nDze`u5~t~rd`yrzraiPgwvGy]eqyʂsjjpsqbM~obrO`s]Sq]hRRgp|]|;jzi^Pc|dVn}`{XzlPLYsr7f\m;{s~zzLej9xoz+cfarq`{Z}`IRfxvl^QgV~_Փcdnvjrhnts}zkyV{c^Ŗq|x4myze|l]L|jtz}~~̐xWaexr~a}]wfqq{BgV}YcWY^vT_duIkqtm`yl\d^p|T|3Jy.Ssaz{~rtl|FBstuqn{Ƅpzqjjvnl2~TGP]l'p_]|VyylJ>\`~pTlg~wvlncTtylrdj|vn{twats̄hkDj`en~hh_[krsjdphBol~peadeY_IlRm}h_tZnkrWEiwH|Shh]cji[{yHmvjiHoadyvVFv]Tv^wytRMsrz{rsmsi}rcpRxwg^{~taasvksq[tn}Ӆtmt;n|xqVfLWjfQnzoxdx|xcRFyqbk~s|yahwHf@~|[boo}q~st|Tyegxh\n{^|ktOgtoc~{sfLjMwiuO}WstQڔigOnqj:{b^YZljeb^v_Β^~PzdcaNzi{e~6FPwWmnIsc\Xrt^[nR_Se|jm6tkUWwbeuIa}t|fsϐfx}jwru9}`yShKuelrN[~mmp_`sa~mwE|xcz_iggJgP|TPaŴd\nq~[\W?ejDsbsw{]GGqw[Kh}ezuz4pwyv]Mz}u<ogLTgLfsj`hc|kBktRKpalWkbfoz|pe}uiUgbydxxMeMbnGhuyð~gMyR{vqVjIUSyftlci~]~_HTgxcTd~yzupȆwty|`uTx`ev{tuurgchErt`o|rzQdwgzC{QݏefWiBfcvrP]oWvndUuIfczoxuTugzs|hkmitmSoGrrhu_ZqgsAxN{nd\mhY~~m]lngiu\x}nUuKeweubrlxacl\mdc\y%xv~S]_`kpkvWGW<s}v|^_qNgptQx~cWa{yyvmjOdXr_bS_Qe{]qUcc~jfozxkgSw\gVMP;ˋgW6{|bi~zo_a||^uyetb}f{yw`~L8[÷}tseV\]DOOvʋ]|Z_Vqz|Onl]kq~LNpcgain{hoUvu;~sf{w}mzLn~aeՉbpd|nytQYldFult_Z{a}cRTtlY{vsioqukeuffQ|zpDvSZT{dtkOuρUcqkHdxzio^lZiclr{ou4p:UtdwxZkwkZ~wieajjursOi<sySfnElU}_cwthiV^m^tiH|NtFuqafLe}un_h~;{[r_PZ~jfKimkt\dm}{PRjwgR{Jditvn[gyRktqq<ea8EmDWnz`sy`[Uu\@{ubzs|jAwQdci^qdhsxPdyqWUt[}~\plzy}{jLHcXuu|CwqbXtifq?o}wmzbQ^Qs\GwI5hvzZWTpuHfxu}IjrUJx}M^k[zInYCZmudm;]xsYUtMayzlɛrldncWd}UNZx4qofLedG^smb{P`tiņpvug]E~`̬w|<whoDhybrk7z{h~`uIYqt3iZwm~}to[X~nnjwy}D~ԞhD|RpJwxZflgYz`\wYqt}jbhbrТ]DdoorpgTkü_^iBayxtm}vms~v}_vf~naJ{Lgfʅ~\cHbHge}6~pWf\ev@GV4~YWtuHs`Shvd*iZy\JoosrWhjr~eyw_Θj`srr~jqRY_\fhW[QdxlpttɎPԓczH~sx`dzlsQnqQcNzCՀofokkoac][_{MjxfZO}yrjn{lYJTyu^|\kt`gxCWFoWiuo__QY^cgUp^akjm`v|qpĜ[nC~kvCLghUpLprC~tk_EŏqWf|{9}coexo2sdnڷzt}Usptyqzc_X1w|Ă][rsm؋S4hwp}trxIQlfFv~lx]V}b}_;}dilĎk_G}r:uyl q<up[rsJhOa]POm|aMU]quR-xzYjbw\xWbjbHrgzry}imjy_hbBjuZn|rwxmcVr|qh\\r5OuCnoJz|mnzt\kxMnoJomSuneiy=wot\tzTqN}l]KvƗr~qV4hwmǚh|miVr^^\)|t>}eۍcbNocCn\JH2t}@n]c^Xf|ta]}=jg|zp}g|`[a_pI`bozR0ptspCa}_{sSEee΅^uX{bm|^^k|^ZN^yyRwLuPOOF}|Utxott`{s8{{cknlnuuocojWqćxvG}yY}glea6i^VUNb~z\}k{{t7yuLabirayy7ĭvWpZ{qMxw`i|SowvGdVa{I3PQ|Ybc[dR<^b\bhpx_FpwvnJswLe:~Qhi|tQU7yurZA{UJMgy`}cXqQh#_yxgnܙRRq~O||ztYP{SjxSg~/Tsjadlp^Vuspo]ayibttzcgukdJLSky_d[}Z{qetemot~yffm|}{yBk[ZYh~qXxu~S~Qmrtxv}skmxM}pYvft{Vj^Y:vF]y8~}_yrugdWBF~Gqù=\~u:TR~bHtfkzUz_VhezyLcvo|Ia{ZZoSYT\|vwvjWKoqgia~Bqlätoui=fm[zrl`}wS[vk}UgstQ>q|M}~{yq~\`nVXfwWidd~7euG;дqUh|GxjftwneŘNeqzYVwfw_uzbf[P|^uzN}wdJdxEybr|qx{Ov[}mo~gas~wBhjwmtvbzr`iqU`pTTy^cdz}}PakRhnjigtlmnr[~h{qrka]z~hvxp|lifTkdjvC석v8[bmz~^bLhntltkk~[sQċ`qg_|jpCVzosZmhcvoiWt[xqzppJu{ejac<qzycljurfS[~ponzO"cB{cT|9|{}fQs}p?x\|OW`~hzkvuyt]xcwe|RtrycyZD`z~vKd]oVn]bgf]b`z`}qVN{}gkwi]wza^qncl@Ytwz|iho~ufbWl~{4skp{TMudao{}{_mfOj{dy<Yuzrvs{jDRϋ[[mVbqvdhdƥnSgm}jy~y\d}Lgv^awiOulsZ]7E*|}w]|]_EducscxZvDxtlcX~wlZ{leDnUK{qhQO^rTv\;~c\rI\ugxy|\zrm`P~kyAYXRUvcvl_ldhMx~wjqpxfk=~\fϚestBIpixV@^U^HTf\znvwq[oyjNgS{pugsċdmxtڏQ~FmZǅuFl`]tp_Woo.[ZrLrv|pisl|rjf^ZaWvpOUjxmwkI{Ixrngmixp@(z~xpyx{mn\t:hpvvpd_OzOrzwm`jr7uV{{asp{ktun}{t`Bhfhql\~gTQOt}Spvl~\mzfsiYYv~y\pax{zX`uRk{yq[NF`aqou~JLGpZ䴑GumosPg}cxm?f_U{ms^[tV|e`zy_yjDWgpuVxih|lur_zjt{MaafTy|>{}A^dktixLksxVk^t]m[itW'tbN{lvs4so\znuVMo\d{h{TrdvnhrfĈi3VgcW{{[cjj[fjl/PYbqvSP}mrHRr_~wv~qckUN{JnUwAIl-nzcw|qUzaFM;c}D}{f~ahhnQrVZwXggC4iuMn{|wphhohTd[pdTyorZvykxmIkrɘSyPqvM5s>JqxlBnveB}rpfb}:dySv̌ScUv{T|v{ßk{wRohxec[~xkd}^bv:qwajYwowZa8o<{|gpm{\AYgZ52J`\}|yi`yn8cQxkpVX{plPY?[ɋ^frpfwkrulšhtMrovkCuaCw~SzbaNQ|p}p\}TmTgnXPrpyb=Mcbmq?z~fhR~tWvkpxNvzkyPpTb`bNgkbYyTa`Y\r_Q]qb^~ƆrmUdzpu{ßt}kxaqhkdpcm|zX|cR_ZfuBdKh}kXRlquw}{g{I̓hXw_EK}^ePIPjqbaqy}sfPl{n^X|GrSnOls^c~Hg`\B}o}y||=yxfG_h{vhNmv@]bMvP{YsYr~WavjUX_Uu}zcwpbew[Wgr|pY>x;y>pdBzr|Rsjvlwth\?y[Mv^VPbzEwPl}uew}WF`rnXotvmɞs{pŹn||{J]mp6\uhocnwjpk~naqPu^aIqiPKpox-{^dkoZnxMrt[}~nyBuY_kLvu[~@umnUo~o}vK_]O[pqĜal{VWqzvoJmnnvUu|N=k~[rl~e{vU?m\Γ|8xIafZokxVmnIppiEvy~`[Km9x2pwmnhvdsa{h\yt{{_eqytS`~`lT]T\QtqaYuyuZZh¡~Aresxzbqrixgx_R~L|fp~dg[SbptklgR@و`fxEΈhL>mSh|U]kY?fa?lЉ]P||wLiufrRu܁mZcu΄ΒYrcwl~nDvnyrgKlGrkstb^^>gb^[]]nf>4p_lroouf~cL}^z{nTR_p[kmxd|nR}bx{~u&igmxWgnSustip^ǊTw~v^{x~|rmzq{^bx}rntgpn3z<kx|r`m{i_wrJz{|tqVy;UcXuvz{~[uzM'siUgz{wcoH>yntz\g|MpOfvK{Zzwxi@fqsNqCc}(t{Ls_uKy\Omyorixzc|tv]pt[Alp}҅Tao^Daakxvۋ{[w\ruZKdox{kJxzZ~|n{e]t~sǎuwxcxdj\]Zqw[yit]ZeOqZYUmmthqĳyґcuVxcbXzoymnQzwdj[[Ri^uR)lW}ZlkZ}kSZ\rqg|{pN@cw^`H^hnuniW[SuuEW~bipucǓnhs]FCkU^_Z]}zbt~}WohokZkWO||nxe|Rq~cht|uqaL_V^dlufv`AɊqŁmguAcz^~av~G2QvlShud]p=x|dikZ֘zhjvWe`?}=[ku~}mgvlZcX~rZśNrtged~gMfuv]}Yyzy{XoXwxSrs{Xqxf~^jrJg~rfrt=zGmUljV}Svjx6zy_MfrinYXnuPiP~mmJgOuwjybRazvwQPz`g@ded|lrai{ustz/uu_tPo]isuffkuoY@_nx^EpNdMlcPSDitKgl`|uPnUdvTrZr2T6n_{GfyWg7~tj}KurmTS{ipo߆r`XOp^{gPv]to}sdJbzpknk}QuqRidËYt=yw}fwxpcRos6F\asqOyv|g}\grzk}bjq硆vrMwq[ohcHxZj{ov~y|vƴckd|o`kftU^{y}qN݋~|tXiNcOtoc|o~h{mloaSzre~v=n9_ltsscthpt?[lPUlWOamppkvmgAk_oWncun{phthnl]Xdpsu_Ifύryvay_h]zDknoÔktceTPp[ut|hdu3y\cǌVE`z}U`mtexBntn`s?mz\in\EuKZe~UWheepҋpkPKrqJdP}kp[Js9x{~_Ts}[}|as^Qbd|jsKvmXU_{KUm͈kmy]{F_mr{ۢfcmqyph|lHpr`Rs|nY~}|i{pds.rqiAnhk`qJ|rmlyYf^WKtf~_mzpdlrac:ˌuuemcV}}b9deri\GK^cqz9rpooshsyCUv[{ymU]{n}q~fe{pn8^kqcpKuYnzyƔquigspdapm|iWpsk@`QV\}y`ŕzei}}n|mvc[LWu_taKnqjo|tkpumtZxrWwryzWcwq_rLiaSŤrh|smeaqlE^a\v^|}PzpeyQ}{{hzd~w\oqgc\r`o}ijzxg|zg0`Oϓgylxj`Rinqxs|kzy0jʫzTu~rbQszd_zΨxjVves0}q{Wdz]yea<IxLsVfuQ^WjijGQku|ZO~U{Qfhfln~}c|t]mtpmygfff|T}V3pxkfbQ_da~e{f{e`RHƛ}xQbe`dgr{zTihc~gZV+zmmXxvxeN^p}\T[VB7=}?tw{vzfix}jatZ}od]qzNzmMzt^oILlxex{YNOnsa|yUD{og~tpeuhrRzZtaVfseuUayhCyxvd_zn\z+F^c\vpwlKzuwph;{zeěPxUƀq}Vy_h\vrdkv4|q{^qcdEY3gflnnhdrPizruazYjYx욐Yz;zѯhb~vpa0\o@oTLftVcrnxvqo.~l]xlOh`~xQtp>{l|yxmr[|ljwQyXceps]u`ZubkW{}o}6|\v6jyq_wklv~\[n]y\yRhq`[UKt~jy`Pqrlo`if}l9}kōLɏDhzVmrnilc^fSitex_TSjg_okME{sdebot^msuvR_2n~4\|ShuyzUqglsr|`alk^Ҕhm]z͝iQV}{}bylKkR{jlGPx|~xyrlsnTv|eir]jcRof]mh]mcabvstNQRYhrj^WKmWvoNjylxha\`\skhlVpuf`naTaXJ|Uu(qbRy]cj_osxfcOI:ZDyiSY}_ove{PevrtZk[qa_]l`d~ourVEu]ZahmN}sYux|Ve~in>txm_`xbhFmbkѕeuZjIrr~}PczguUhOUmsowbr{TWlkpg}suKhGpd}oEdsq[uaoК`tgMwyojiz^xjls}{qxXSTVBna}>H}rk@ťwDmrMKfIzfrijp~{on[nwZL}oxebq~[l~s/d]䀌hnFBxVIjkwkvf|X[q@[C}}|Ru~vU[sBZvaeusx}yu]OroNYfg}~WoBŋemh[t}l_qaY^tJvucS0I|e~s6k\wf{xx}mi#||~lonT͇c}TnkdbbĂqeZcVedkPDpu}i\®sfxմy}n[{~mS\}[{a<wi]\]vfFXxbqSxo}nbwvRyjidbikF|ys][imhk|xt̅oRtl{m[v|vm|ltpy}yhb~\RdifApz}zta^u|jnkTctYvmHhn]Dyqtd[jxhTb{~rgkd}ocodweMg`rH~ost}Iv_viJu^\}mhkoePVz}kdwgixn`=wzouXrv`kU{[p^s^av]gMxp{SoAQloul~^ToiR;Ex>Nt7VKp~otSmusP\vxuybxf~Vap+0m}[\|BH{gR|f2Wvm_W^upWuaou[|LڭJs,\qXtqwvi/Y_}rlx[~shr\xtOtwz_Esxf|hjMhAqaҘzpIy}k~djf`URdi]evYfwmeUh^V~pfQ]XhV{{rQpteina?{^m?eiSfuKrsUð`g_x_qldxUtv^SgvhĈ`B{s}omO_Hgk^y{\u}lsaSh~99ocZ_Oufduw}gx}c]pMyoYzaXzuySsWw;|yy6xxhug~e}Pz_w\^Vgylmxdz[wdxs~RlZrOfkbmgn_`Zvv]jixlan{{yWaXrhi-Oj^altlvSvy,zpp8sfDP~ljt;~yByS\juxyGuwt|T}DT_B9j[`wXhciquhsVinhyQg_oSqqp`{蝡{"KUxItyaW~gu:[xci9svv[OazzhxU||ClztYtodatĢvQjp]@czyTz^grm-ch`m]riYot{a~?{qxSzpvc{R`t\pttQhoyo|~R^Tp{t?weRN˕}\hl|VtkHstɻdt\]vRtr{vxX\vr`roo}nK_`}puxZU`vkxnaC~Jw<q|ge7zǣiRGrpUphe`PPz{icfdfpV~Xmkgx{}mgsQrZz\{}{ekl{VzjB[SsԕxohDz~VKAwinBTPbx^{`Z[t`w}sattstqSxsQБejKv"Agcx|w\eZPk\WHy{k}lrpw<maBsm{pdo[n7qn{liZwtuvumholryfk\hiImwwUu^qqxJsfƏ\y_mcocVemez+[Ti4|fIegoewru>j^Ɨ^nWYjsTVddYizr|1d_zmUlOf\Lre`{rbgx~rIoqso|vyvǛ@oep^j|uduixd|fan~n;[xo%bu<zwtŉ~[tpLݐsvczy~g`sp[pTjk}dHqxsnfYorFZbH`pq^z^uzrVp]KDjDy^~necÌ[zs={okfcyoJsq\xnslx}}v`Ýh1I~Rpqy|}kh~vz[?]Dn|rYogWc~uWyd_m^xO_\kk^|xwils}qtnt~bzRm[gy}]jyvvbҙ`iEqnytdi[~ztnf{~bswciFky^vCcfqizcrn`xM{vNuq{yCmBiyifx}efezfl}jnGad~QZ^tP|Qy}]]Qu[o[J^:RQeXwzhKm^o2h{vQq^vtX||{qjVqhjbHwx}ktTxfUyjz|}}zqs|p}JbnK^{ryxKYWh\wVtOryd|Spw{u|VeYQnxbnookh;\stXal_py}pT?hOtoxe^eY^EPcsqlMl}y]RhKjk{{Vdypftq|f[taSZ|l__^^jYyjr~A}mEy~J:hCwZqCOzJXq|_n}[sWKpgĉXpyp{aa|purrm)z}a^`l|cizBjr;ІlwIhgXpv|l7cE|wej4z~Ntbtu[iHqs[E[oao}id}}mq{pe|{r[R[Y8iRl5DcYyg;MW8dpnqin}|lm_zU_Kqvbf{dw|k^VaQp⎏^|ZyjyugnmfXcvOuvΕǋ|pR^tjwy[wbjq^zdPk|AzwJ\kbuuYmzl{[Ju\~`uiv*ic]|={mw{hh~VpmkUjd|\[ɹllb{uxX~bxgcyVc|r~R|u~he\nyD]xNi\>os_qgz`vyb{mWJz`A_XtyKGmXxǛn|m@tnPuphyde[W|hCUX}JrnycZfkQdakVRn]zS|o|p{]-m\w|R˃Ccz|xWdEieeww_ITo~Clwdg|ˇy`uhsj{l{Átahuiol}aIL{kZ]dmhnlnssZ|EgcuƄσdњ{gbexh}dlzt{n@shu~eGpv@rmv~phvw}irjnov_jY5v|yX|qWktob[Wa|Kwuin\fLd_~eyE`zZ{wdG~wlĕuax`Bqkegljgtpb9]p\_eMbsw|^u>|lQf?`g^es~pvttueHQhaiXaQ^Yszn}s|~[Z_qr7wtLkxS^[K|n~hhUpo~cZtnepW]}jonWdՏigk[~\×~xTypkyltakypȕfxxftoq{sj{bu3c[]{nuzpcykdvT~LuZL}{vaw~ozg`}lY~^mhxdg˭fwJP{p^kqtds}~xrvBenvJpx|rcOɀ}swLwvmntE~hjGj~w^z|hLMvyl}Cvx_SniuZT]^|qbexOx泃]\}}juzqg`dVzcbu2RyysPr|o[kj[{REhtv\ffn^^hnzosrttCi}djcIjp[zar|xXxrEUUssrk}t|z}InZd\c~~[eoQ~h~eM~n{fo[sqTnaX[_o@V>tUdwqfycgOwcxs1^pmqqu3aqwrnwerwru}v~hnJR6?uJvzjp_kqzVf=}xd?oxdqJa:[~SlZ|au{tyYvPctk>arisUl[w8Dkg}}c}T}bfs|FzLz|DF2dfxtypd[w{iBmZ{|dzjb{nyp]~zkiZŖO}ucNG{qjRzTup|mmw{Iln{|bqJMbNxʀyIa{iyWfpMlIȌUtesai{|vxWeâ?iYqzBe}JZiff\ yzsZ~wuMfLPx>snsj\k^V~}{w={wpIs{grgyǒYo|F`-tnx|llOmxawDebMgeXkNcw?hb?l``uYwzydtUrQ|f}ayux^jdtxwOzKpg[t~lpStrbjCU}yaQhdp^^Se]Yw=fnmrl`uAuyTCk|ner{P_mozmx_kewuH~oM5vxjLoz^UW_mlOnGEy|o{;brxxrXn~Cvfcke~nNmdbdysklQjq[]}iYi}fajjIL{\a|i]f5_o_Cqp~7~Xm>}{ichneMbm_pZwroGkkcfrB}|\vk|tXOWk|erN}=fhM~}[qT@ioYy^|}Qs]bi,[{^wtqovMxwpdoOanPoqH}xt1~QttP?U^ɘbYwiPQphWmVir;gX<;z?to}œ`hsYoa|zjpnheKCYvu~kqk~Air{Ih~nw}lyMftq-mYg^uu6C{b|LnjsvqXtnUCQHzHT|tZ^w{irywjsRkwv`icfdox}ceylE\e{~<rptnUpuowm|eb]fmxvcphxhlMpP|fuzsz|_lZOkCbtcO{nYwa\QU`RjNNqbtztZkgqZa~_{aq|=~taI_UhXphicrttoWsv}XpK>l7tr_whw`dTngbkxs`7|eVs|Ԏiy[~gf\LoyVR[x{vf;tqVqpA}e=xtuR|Px}x,Qvez}vz{r1nbkqgr~hpl2tVnXrTnEutqdkQUfVvmde|~/`Wmtr~zt}gloiWe^uaWKtjw:ɑfǭsom>rk]bsManu{u^|sl}c_vxOJy{YZ[Fs[UkUiQkmkh\_ciwrqx|yfmxaĉ}ʁ~suS^y^TjUwsv~x_Qxh瘊FngkZvs;ww]>ozPyQcgmxOqwWfwvgpvUUevxwWgh`^MxoMx|d~Nȑ1am\?iZvk>d~~OCɶGhzt~B{k`mR_x[sz7j\oMylthnFvbk6qv}cko]YQqhrZYFrs\haY$O N{oo{DixrAYoV/UxUhhCrz{esqbfx\~^wg_ujzxy[hiqjnfhKTx`uhtY'`l}٤mNp^kZiPklFwxf|zactucN``|rgijPi;tftkpa{EyEDr}zuT_|hvS~ziRYduXNrfoj~S[bdV[kfpg_wgl\DkNW?{Wni{kĨlDm[fxYK\dr~ntkTmevy\{~{oYjZeX^fEo{hdTsiYWoqVPgqgyz^~}b_bZP~zSvqdypb~X#|bůmhqXPskmZ_k|`{\Xxd|\~zoko}Bjhfe\p|lBersek?tnhiucN`{MsmndBTyu|QpsZq|Xunn|u{Oezeyvwbsu~WUh|g}tpyqXhn`oPYhgt>bPmcڧT|twih|ytmwUzW}o]8m[]}umhe_Pnitp|eox\^SlhPpU#|YW~|l`x\OrXu`ykn)bŃpzsk|vdqy^hmrW<H̤i4lx_rqsMy^woZr}+~f`fhxGSYkuBibzxjrWe8cOonzwxpqjRSzhpqiy|vqSUbXpV~Va+wGW|sC|np\Xsfj3D1oscix3tWvWpqNkR7`p}lmvcxvn|jdn[thHknW~n}xv[Wsr}/c||ldjx'r?v4iQb-jgqqzMsp_nXuAgGdrrztQsyjutcjn}Z}kq~LW^qP<CF^eqS+WaimoXfm`d[ERwVZ<npButoqrzbmpZsfyqqhhdi?ÎzycHynmHF}qqfQWVg{||AÎ|LЊa{h\ryhgrrf{ye|^iVjaXt`AxnvWw}R?ngws\x}{cLkxzeĢVrbbfwВRbw]wb\smCiskd;XYJsWwaù`v˥cuz~_xktw~\@vvuuw_FgM_TyjafZmhy~WkbV|p~bJVčnmrhXgpdcgvkYcyWpe}hoHVlkt~Vxtvsg|xSlVnpPQwexffoDwxYe_c\mt|gdVpow{PyUg_gz}s~ywcn{r|cFpy~h\Ewavzpij)gBaxuj[zxe&caigVxxyd[txavGqr^ebzewY^Us}^+]/hxJd|xfkyxn?Ӯc͏~q{gssdm<;VfYvc{^twsAz~m]libo|b[^rol|czfQxkf|x|&q`hym^wUhrlmwyi{^^j{;PcE~z]evjpfriOq_Uyz~nn[{uPdZ;frmMvhwy=haW_wRyo|_B<{Գwf\K|vk\~w|_Ny{tsaN]ff|WsoqktzkpWMk}o|Mrt;o>Q[idsXl||{Pc}Ppys|fQwWSlmvc~mJezem~omtF]knw7Pp{|}]zl^q[xWsŹphgriv`m\t[nlzoapnޚm|um@pj3\kwt{]tkQvjdjkMwIFDl\L'atƣuLG܈rjakRpWue^jeQpwyyהzLc>{P}Mrrp|}uajqviabm|qebYlatjzP}R~YX|@V\XSG~ċcbS^uxj|ljms<`zCiks/ghjjjv3t{xfa[wx^ZnvS[ljcaڥh{dp3rtfr~YZyu
R^@Qy}CSqclfQraY~<iizu_GKv]X}EX{iypt}sɦfy{rL`|b\zir_~l{ovfz-N[qZrujxfpjFV~TmkLHqfxCvFOz]_P_|}rzkWjwabj~P~D^`|IpvzkiccpmpI_zezT`PJind~dS-_HuekYv_О|gffysP`Bkipqism~[o|fu^spCwyPQcICf{6azao~\[[~xtw~G]uUyo~ntbh~TtpSgs~?h^iLnnbk|goUohqTfuzzko[sv{hTN|1iNfMo{~pmp]xf^]sjTZz]dsit>`W\c||\vuZUd~o~~t\h;~wx<|_s]^veY@fekVfsc_VghkY{qPxqsic~aw@yyyt\[o|osUV|}mdmeCzyyLwjmye{;i{wY`Z[Ub͓hReY{`jgOb{]ytKXxk}j{lhzqiąko,guvtv^da{Ɵ|ad_u]g\Wl~}ȠXi?|gMstVxCk|}vuyeP^Xmabҍic^~Wcfiwpy4^~Zonzplz|hZyUlxdsn}if|Wpyeucjhwq~p|uxlddlpcn^buupn㒩v`b@zk{e}zl\z{whiSsvgs$~w~t}Aixjnd{Fel^US[lzzQvg{v~dGvj\zg{Cp{_Tmyu~GĲ}ovWw<wJi_CWOexmpxiaxkpkY{e<`^||qjgrr{_o'tYN;_aiOjM:XMuN}z<Oixptz|ˎfQ^k2Vl~JTcb[k\p>wsfega~kCf^fnPxOr{mYikdRiw`Stwvmmuwf]Ӊi^tdjNkzdZnWbx1y<wpjsj{EzfJve_wwoBloJsvWlXa3|y^m^Yhxv^rTXo{tg{ne~h^Uz\bCD|aQivnwzkvN~iJv|prrdtocSbezz{d{n\}Ji uW_uZ|~vyychV}qqd]uPmyrDzh_js|c{mjOrz~lmp_~}]5o|j^ar{Vy|xR᫆h`qhl~p~bsvMdhvckU~wpfuanr^uje_ywR|e^[xsSytpsul|Ro{y͵}hWkey}uoO\lhyfcalnU^Xq{yApbqMPq~^K_veP`ErchӶmVmxndN|~myzFv}uZuX|Eq]Pr\xי_retuDcvLywwg}|Xuhp]]_oWd*[rgxōQa3TdtsiKx3xqhv|Ryuql}}4{xenaYtwdfrwkO=tr\Qdg@euoxc[et~jxgTpsAPuiJgEjjxBoRsdXbmv~R<bhgdEPIu@q~uocdenM{Xqo׀feiCx\flv_nfTxYLoiPskLcusaw~O<mYojvVtwonnr}NyLsxʩnsae_x[yseYvvcr{ZM|`yqr}}jP}H~U~^[xdGBvjkYo}fysAoor}|^@Yro_norLŌ}!f` Vfigu\Xds]k=tfbjqa=KC^fpSuckÃ~vIyQ=agw}xUyz\wEQiBhw_`jqPGuogbkoQfX}}zjqf}]}slmJ~P7gVoucms|ZTR`~esj{Qa{eUg]L[?g}|EpRR_ĕL:ayJfv^nk]dkmbxwn[y|iu`p|mphzft|jyFXyӴkfzTcmCOSezwWftkmlr_|k@o_qJ[Vw0sjҼ}h{tjuxltZkہ{bt_k]xcH^bcj^m^c9hHwo]rLdZsrrR\v[~V]IޣgkttjgrjpĞfesOEtgf|lzymwjz~g<Lrue~~h^OsrWeDq}kyiZyryjdt`kekhHG~ʅmuzxx{S_w6rqjR{tjZPe8YsXhbu~ɔ}w]q4u`pkclfc^pm_r\U`~|XLz[tvbydwNpvcWeqqnVb|wҎTts`vkѥtxBƈ{zxfv8|{Y/meiDlsiwg߂rjtVwSkQvH`lU]DpmtѣuwUu^l~_zy~krh|`kSU|Rck|OZgcyA{}tXatuk}pwjxuZ|sqjitnzYk{kXyg`Xpf}NczThlurRc%woRẠ=snh|vsuTwqܒ~]o~{PymzomszcarUuOq{oyPdMbpc^yoJ]uT^|g|r:zoo{g~\5_}ryt]luLYeg0{i~uZ^e{ajrnjztjPjs;z{KzrRpp\ht˩$uot|`xSxPa5~~dniprhbxxdhVDl{csl~P}yl{lV~f|b̏Vc}mqjjlz~=xǬpV\{O]{`^xmbjjįeZ|Nyerlu~TŌb`pv|vL|wYvqQp[O~{U_A]v^pYwfu\fyhxovx|izn{twwelYUxuX]cPcqzglRj`Ya_wm\ce{}Jbk|lsp_vLEӨqp\p{[dwnskqrbsy[qmbRwOjVbj{kS~jwpwqUe{FsWv^nnUrhzXwzjsVauetKTVqqauoo}~gaz{Og{|eyZf~pdHpzCp`}L}plvI]B>wyNmx|aAlldKi}tzJZtGwkfiD}yTqT~sq}}lV?kvvpvjʙ}vx{ngj>^~l~k|qC`WfpwnpZcUxoezssr{g^9muiX}keky@C~iiuW_[mW^sw}[]mLr}i~rxqrtcqtts_zyeirwspglc\{}w@qoYrxzakox>vrZHionfgxuW\t}ohXɇm\{r}tbZLP]O~[\_|ZwRhZ{l>{_ufSha}csnn|bhcUv|[|Scbtko\OVviQF\fe[jpZSz|8Ux\V`Sivat.rssauo{fGd[^{oޥwO\mZ\yzWnnxspz~f}roxhRlpN}[nN_rSybnxWY|zadҕgbs]rSay?`{h{;:<u]ȋ?c~ox}Z}uvWzbv'z@G:>afnVs{ibsrDcjwst{oG]mmOcosiaSi|[jZķYfwp5sKoer~utV|e~s_y{MZq{X[w{Nhz:_y\[Losci~ѐr-m\ISQcc{I[zausl`yx~cyohJ~w\gNyuisOK|s|hfSYY{{ym{}pPttqUuEfQxIfeMfTZqP|W~e}phWog|^ytizlZi{ylq}_cxO=~n`uNyYuUynXVdxVm{çIs_qr[fh]o{tWwzu^pzIRnnjyXXzl;kbUjby^WYppoRPrnn{dZȘ|yX]_pUaxsUswpZq~W~5tg_bNFrwT^rcjyMy~ritchnki8zƋh]lgZ]M~[gnrXR`dxsLxktRhT=n}jizzg{f~bqpe~Xsoswlzsb{FLsS?}cnqmpWvcoYynkrcs|opdiq^mcKnsfubj:ySsb`_p\kpfx[~WV||ckrgw{OxXQwd`pfFpXnM`|WVy~jyyxIdjs_^>kIxCbzxp|Ti9ngXw\mmq|Rxv1vI_\Ta`kQncTKg6RvScjT[@vjMuV`~hT~M;jXpe˄s_4TzTayD}k}gpu`dj~|Moyk|YV|tgs?0qq]crlkyyj[t~rkoN}?wdbNUKwS|yG`RaĶtqft~eRxH}Jn{^\VPS\^wkhl}mѝfxpV{\fzwge]ssqxuxua2TRrfz~qMsv}qrb_f|nnZ{yTadgtxWhx^lhyS[MrG¥ntwap@mrkxncolC|ZatJkz~]FFmwyuk|jvvUileСmy|pe|gԜqr}{`Vrsd_w\^]yxdyCiPr{xKnqjsop|xqKOsyqÆZw|pkRowtbTam/TOo`Vx}dylPeX\]nQL͎}<}(t}_Ms|rFd^`l^f}Jkp[\v{drN^}~OgcR]oh_zn}zțypxPCaXeYrzmckgurg~DqNVqunmtdvtwiAkbpSSipigVmzmeHkPopPj\2}CyivqCjn|Ib4|qbpxjFf{@myw|шU~qz{|kpou§bP|u[DDrVn^iz^sLho|WyiaHbu}\zUTyc>tboKo]tpqvzFXu~:lAupx~|l|~H}wptN[eWPuUFZ][cgv]pqqsTrՅgrjvnŇva]ae`^eVl^z}ti]v~R[jwpptrzhlpI~}@UtlqY]tUB~zm4|wyDTknt;rxQWmfuX{i~|vwn}^XgP~{hwessq_fp~zkyflb}Vk\W\tKpna*He{xklo:kJope2JfKfj][Mkcjm\w^YckeijnoOkHM~^wv`scClbky\ҌY{zdqcRSseZQpmgvr||zvzaQf|vwp~zvynZivAyJuZcxҎ~wm<tychgSuubϥ]y]~{eV^n|\zjЕzvPqdO\zszJ{wbrldf{So[nrVSjQSXm__u~uhwrz[r\cOTm,xhgwqySazk|kctHYeYFx}lZa?}f~F]doSWp3lbozw~pfd]f{n~cMyUm{|PZwvnbpZsuhhvy_o\vy|vaAepqC[}MlhzK_z{q\uUF^|~xftt`v~{zg\nZcciΗjYtazt^nd0]mfYIbvejmjYx{obbPrܓ}uVqxcs}Kxňn~j~s|TsAa`egTuI1dXu{h|J_Tr}iajeMnS\7fZQkcexxYSdu{PmDjIi̋kVQsrJkbpta]|pCFKY+a{vfSPRjhsovzWZm.mpy\xU}}suj~_[aqlA?vjv}Cxp`uhsyTJqlbw}WWXJc<Q}^y`Xj~I~]cnbzXǦhhgyUV`Uqd{v~knFoYtAn}z}edovnbqxxk~tl{pXd|~}hyʯ\Upe~Wc9ٖLl_Vys{jsk%z@sQ[{n`Mxhujm`훀[nbdnƺ|wvtiQdywge\hJ\brX|s"ri̜h|Koohav~@sKKsfqc|NvO{iZ{H}­x}_gi||m\{rCrBU_zm{t}q{Guur?[jQa\`{eVzswqzbc`}~DW~X|vu}xtM]neuaTbz@kkk^sRSt`ruʐWxsht|{rt1xPCvamrRgqy?heQotx{mnND;_]plpZTw}^cuyTc~|~Z[gJicZkb|f\^wvblY^~b$qx4r_~rXzVzems9ԣekMw;WLc{ojadjzGzXk{`iyQqI\}k]hvswhN|`yzLwpdh|LLfG|wqzmuhmq||y@vc}}no`sUHFtbxKaxl{jjrf]{n~@O\vflZ6^~~}uU~g^o|`V]~oȩ`{p|Onjdhzvu\3ntDrq`ђudptj}zm}h_iuj}~`Fch}RlEi|a\~tdld_|{r1}h~[j{Xd~qUbhmQG&ukUcypjUYzn~hysѡeb`seyeSu_mE|yH|y|fuu{yZzay~jm-XjgQopmtnŊyfwnrXuabh{qk~m~B^BTy<Ytz[rsdgtowaonbdRNêre}H\VdXzvJx}EgiXNnY}vӏc|pkr\eUjqdxx|mUMlXISmh{bjUqwT`Dtwr|||Rb{iv~ËƍceXnhUpMur~{zhS]bmnombs4potkTpaIrxzq~FVYuVISrHzNqxt{_Yi`ozzY8|ʁCvxifIfr~htgaStlrq~j|Do{idfwVRz}zh}{nVV|cxnABUEOXe[ixrJv[Pk]qsyXF\~[se3dawaBY^ss?wɝgjU\xJ}<jlbKYgrmxhdLu>sa`vxgezl[lZQтhTj}QXrfPcodKduncqOj|&|WlNvmXz^rus{}eFg}Si[7hzaJzZ=cu\\nr_ounyLilCmflkVi[t\lotYxlO͉|_x|xpZYdcy|utp@pEeft{QNy_aoosZ{X|[\ovXdfhU]yjahE|iazO9Z}mdorrQ[|iezM)~SyZHoT]JdZʑualpo|^sPnaYZPrptoT*weuonylۻX|f[}bv[qfSQtePo}aLMweggƉCV^ksjypmxSOum}tIQ|FcuX`}`BpLjUzIwrf||pTtfi}yiaXdcqwcxJ`V`nsrlsoPp}wslOjlrUuw2{qSzSig{{tga\Zq_s|jZ{nntZ_kchlk]i}8}zF`yvQuLc{w{nZiwzzL}bbOhvXs|a^x|UNjwcz]q[ajXjriymfsmglYjH{fgnqjUm}_sGze{}]WJ~oS|ba\vo}xTmLtk@L\^gfyylil\x}ayWLWm|cuxZgz`fTddqgkJirp{hi];\ƣlu|pZyzltzY~yseSUsojwcnSd}KI_wQf`P\}ds{VL{`\LQ_aEci`SqyquijyIjrcyEvjsKLjZk`]j~\wigV}IddsQq|Up֠ɚX~lapswcrSGkhaŎNoy\NppkTqUscSul[ojlUws7mUly|kcsldryml{weWYc\lְuam*ţY8D]{rwJwWzό\ywH~zspǐptqLqʘpPwuoТyqX|Iz=_abyLlrqjh~hxXZ{jO^eܿmugLgw|ΠF܊zjhplYzSwK_vpdQWyp}sS~~UR}ZWtXY}smeF7_r~~~|}wnYZj@eil]li^{ewRtg}mdbgabt!tcZnnz|tS[Hu_vxnJhqzmlucdhXxuodx[nÖykn|KQjwavtDU{|rKnfaszSqsyyo\wc^Tw~hbZ\ueoәb_akrv~l<v[if}jw[xqNxdodYhˣ~]+bWZsWaYdj\jkastnhpfbZKqy[ttixDqihzs}m_WNsxJ_Àyz^>~x~SKm~``qlqZ]zhqgO?pcnxs}lǆ'wkYoN{x[e_nd^mttI\pkwhtJgv^aDi}yphSZ^ogauy{kJ{Lz{zxSq,7l~wohmvvky{|ui9jipeg}фRwyhmrltlulyg]Cjh[kouOiaIgU:y2vNj`fusrQrndikf}Gnuruy}bru{habWSne[vO_OORhaortJj^UXMU|tve=yei~yWwskoYgvw`yzYȐMUdi}qw_`pznuwg|mo{_d}hshcxfreoCgTgvywpw}u?ukNV_zn\cHv`]}tgxhfUbrrrTlyzZsf{"uj?tkMNm}tnbvmnw[mWWa_bcFtLkdq{dqOpjqkș~Jcq]oJjuNzy\yt~Jd^_up_vk|s{SfxogÉs}}wsax^`iy]ju{a{fc{k{Tqqnjql}ny`1S|jbsqUx}҈yuy|ÅzM{'PicOkSvɭP^a\[\gZjtpuxrcb:]5\`qY]_fgqglwiwnyqYolt@}V>do]lwrukgl\z]~ZPU=VpuXvll~zvsvzv{˼\ŏ{F~uGl>^fa|jhzV_`v`LRiGJ|CuahPITfdsEjod}DZr|u|i<Yzxbzeojhdau|aspVQWrewWueixe~rlzrsfwr}tw_pd~H4fpVhlmgn{GfVfEtWqZ~HbtvR~dMSkKzW~}kvupTcq|=ntRT[`wnuX}k^Yo~h~kzR|×\k~ozm{D\oaSIyƊo_t3Sb~hi|ysƃxpw~\WoQazwphYvuseoq~{z{pc_o]|jptzZ|qd`R`ggazkb^wJw}xPs^hĺuuZXn`Q~8hʘrqhhZjjxh.kkY7ct\r|~So]]LdjNyQpvk;`[OwrUU}L}YPwlsvnmw}|:|XphgYLi~d}kg]\|xv~R*|i^__vhrqnXm~dchnmx{bDPrm^ayh?fqjleSwwgcx_Cmhwxl[Ha|~:UIirt^p?_j}b{sstzWw؈VsV`v^v_ejsfHNZp{^RQb~g;Zdr}ds}lqh~Qy{|PUXcyFqٌA5Gztk_zPӺzfyrfipUur~asW{jo_]\NsX_zg`ssSetju}SKlhkUnmpuosjωu\wn{<ŁW~o|crwnxVpj_zFd\}mntz^XLOHikuxzwbnce|nqrs{Z^xaRY_vmQ_y||Tx\frdA+n\P`?|x_`dY{f\]W{QwhkU1;s,sejRt[K_8d_xlWzpK{n<dmZp_oAmO~gXY]iUXwsx2s^|qVPV|sOr}?[nYDmUfTnRw|m^~<NInx񞲢$sZa_{|omouW\zYYNwTOfpS^tcvaEwjfry~qqL|yVygqft]gxVyy{T|tk\ɇUMmAspcj}bdc|Zc^vjSJySXiqBsoWd]v]ҥuiNvl}xibqQprezxr{ch}Wdb5shWphh]l}`}o^zieYkYel^pWG}Lt^wcsowXc}Qv^kRhgzj^}NrXdzBd|uQZ[}{xmwxv~`[dos4}kl]YlfrZAx{]wZn`MpWhw_Lo1;js~ugd_c`[kj[thyUwvUq\Wy~ͮfsqTbj||jQo]zOo6]`tZynYjj}oY|tuxE~fbeJCmD{ɏ.E~k|t|NTkzgqxdrrHzz̈Gga|SFlm|_tgej`agC\s]czo٦a~\\yImrqot|}}ashazessu}xOg=z`rqvXc{~d6grwV|oo{;pK~Rv{~YlXbIu~||ka~wYtJkszN[~bLx`\w_u^xu~n}Sxx\Taj|w\GvtΛ|LVeT~}gcis|es!K_elZ>ycWWnc~KswvmQsYVwn|mctpq_?L{j~:SdnnsؑkofwUS]jxNktlkn_f{u}todfknypC_[ij[ecInZ|{xbҐwaqlekeom6tdx[tbluWWM[|YMohWlfqxwWbNhcjΗUKHpjfywU^;gz_Ow|rMutg\}{g\cxas~qtXBbhk\ʑyd`L~{BtlpejuzS|Alrxdbz^hm_yOw\aq}l[X\vwbrinrnj|~jQerqoo]N~zTvUsrbt[fLjLhW~aZdq\R~qyiavg}½j~IzeuiwgU[j]s^kJUF^~gv}{ge|NSqMiUPokOl^||IEds`mauxe[}[Vidruda]O\sfnvtsns?ocN}`}oVsOj8|\rvuqw~{D\[Ѭ@ippaiytg.jh_mb}s[lk]y|ryŞpv`}mZnk_dUvmfygmpvrf[emjq\Xftc}~~\os[vXWO|~Mu^h\}b|v}lzxstkkprg|nZ}cxzzpkͷjM~flzx{j{rtuji|~sx_}PYT{wk0cYqgwwuauUp{ll|Ob_Zzq~__vsec`xPne<f}t}~H͓ieNg_t@:Xyzng>cau^Prs_L[nekrd`:^UI|tzvn]uvwfab~dc_JgiolKrqbT`sq^1hxm[lwhquXyX=aztvZ]fwydsrxhvƭ_g~tlwP{qDx^die~}|moe{fthp~ǂgh<czoyoEywgņ̍{[xjrbzxwqAmAe[qf{rtzvn?jnRrknzkX\\Kuemg4oi]r|{dnzwUȋpstjP|sk@~rSZR*n~fh:KBJ5IxOPt>RrKjS|xzTGikavsQ>}uzU6q>otw]x)cud[grEbodPgr_Od[qsC]PRmAwoB;T~v9p{lCryhM]j|zvgQ|ts{ieP~wRZY^kurTs~fevX~cs}SdogfOwlhsmDhlY^jvSʯq]wsQq^Jz}oCkAfd~VhjNMM|^Zkیˊte}Qmr|Wh]qsUzbtM{oVTsnomr:z{I}EKn[a~pw;^okux[kmooolexjmFhknfphezg_PNvy_Znt~~ws-}ThsjluXw{\\a|{bCqmgmms{xoVxyoR{PuNyZxjQrkiMmqVucgGiR}DtnvxPpU{LvYiprOqrfgmQkvpn]pXik{glqtDass~shro~wOPx]Y{~rtnoceqarJr2xoUtIXi'bXx}yeo~;ztkzgXok~ar]et|U|ZhVZio\glk~Q⧙gEhje{vtgytlT`vnnJ||xut`y{kI|n`gfTxo]xtyw]}s{cfKjdiz\s^cbKludt{jrTwpUAuhuD]nd|jpzNt9eNCfbi`_|yd|j`}TsffIa=}7omu[`Mjv{cJqXjy{MPWwuyn]hpcry[~rsQ}yz}_txIm}~|m{b)[nSl{?qing~Ja^y{zfR@xk}_bg~a˘h~\Iiz^2tY}O|pEmuvvhlks`{onjm_Xx`x^l;ilwf|km|hw֭h]slVilonyqR=rkugR[kqRB6k{|~{|nkiO`}UNrzhlcn[cYvg]!qYnww/roe1GeQrlqbY/kGhycnGlhnS~sy8~oXqqi`zoWzdKwv;X}c}nkPdpgfcx{i|ΞUw~[MFpEjRVZogju]q}ei\OocN-peK~v_kymnkr|`rEW~w[vaĜjv}}{z`MYamOrr`cZrs\v8o{rXGSzl?{8nވPAxsTSmmexy}_]Xo[oqqf|BE]tpy|Wfwzrq[rZrpjp}_Op?mv?dTpqĒxz_obxzu~cnSrqǘ~`g[lmyZlLv{I}OiVwgZ~c\whGRzkwof|k̦w|DVYvh~ĖmfQ]q}l|Co=ʕ~bortʲutndjlUyuNwCtdcx.\j]kO\xw~XxXPqKZQmr@YxzvdquY_{zem]YibjolqsIZROa@P]ycecxgJ{_tr_|wzpFu}d\ncwSr`Mi{{~xi~k3e_S-kjq~|bj}+fLbd~w(zvg{kPx7qj}YpNfkyJsTtXuQ}Tqsxx^Lp~vozcntnmz`xRdk}ZewppXwmr>ɂymdsUmWvDx_ekn~t~fymiaυ8~{h͕vRʇfzC̀onr|rQu|ewbY1_l}r`qgpMZyoro_JrdbuitxV~nejr{f_XG`E]Mlc}cXa{_owwM}}mfoazx3fOj{EdupgVM@yzxYnubx°icrzui[ynjvJ{{u[wjz{~Dz~QbTxNvwc~cmiy\a^olco`pjdf`NuJckudy>|[ni\rpfT>{qPlwfbxzgj^usX~r_h~kYwv7w`ou_|u\pe~tWuckj{X{rwzH4oci&eI\nw_w~dlntj}xrnj~~ar@wez@siy9YyzZzozevYuzzict|XƓVN|b?qbXNn]rPmrSW<oM2P~|uv7\X@S~ffNgzejyb`ztltv+_[Hqt{:O^zsm}Y}x[h˛|zr\yԲy|Yr<x@|u_^wiRqlYqv|^imq[[kpb|~e~}V\uh\xhhnltvOxALg>de|ЀhzzG}wg[}Qx}m\r]-|iom[cM\s`~vnCjsui_rXEo{[vrdeSbjӃh~}}i@yQr~{[nm}^w|nnoca}~LrȈxuzUukU:gwꊝ\M\}ys{uXfxWwQ_kx]z{^iMz^hw}v]rz)k|Vh|Wq{}l\\Ɖŗ]ÅJu}ErQ}m]yeTy~Y]flnW{wY|]E|EtA|zRWV{cmjlp|~ITZuj~u`x]bx`Zw}twowucpg}r}vbpLK|ytb^dayi}mtg`edyFSxiRn7qJ|z~Ynhpy}ydwRuXevX[tp]vt~{{IkuirgRCsgsfoLtt{]{Vprdhx|thQiutaGwDc8p}Q[RC|xmevErL~y|ÑijweSvggs8w{J~|rv~XXoW\}\VYYMsTDSbn]h{mD|y\x[xaua_nłXɊvuh|V[fkj]brAryiYbZKuz?W{{w5uVSr{Be}|_\{z}T]huUo`cnWif}gmce}cAM{]}\ubj7ypbymlßcos{{QIrw_skNXeso_R^umkI[u(Wirs{jPvNJ}Cv}mqda`hototkcMkt}v~ON_woTMesr|dƚot\jpU[fjsstwSoQuX2clw`Nltrpp@tcxNJu[zokcbFp|vfYWw_MsZҸmtuv^eҴ[ImgWiZwSuw{yxpPOzZoZ~xTwpRmcevyfw]^fÒOwxv}mvst]V]rz`gMbbb]~Dsylq_^}~Ri|Jv|`qPy}mc|zqY`oPq[GtlxgtaWlsxbʽf]zvuy_<iy]y~e_nt~YZiHcQujiymmP4ma\p{atzhnl{^yKxuv|fuSNUT{n\c^`MdQkYopqvHfx*YlVX[u{l{\{yt{_{KjqEhdj]k{w\}|`tv{Zq}Hj_^x|X^e݂Zٟrqnp}ZxUwZJ}q]v~qVo(cmQop[{wԃwCnJxfYR4yixhhn{lS~jkpPTx\yoznOr`_itbv|m{patqmހ~bMwBpjm[A9sjhz{mxzTqaUZ]mfuQ}omdW}]y}p=f`fyZ{OboZV`TVcq|hrgӆlrOdSsoyi.GR^{]f,ywWYFcu{nWdQNb~Zw;f~ociNjeKm_n̅_NhPwmelWgo<i{peUSMVkvy}S{yl~`}mxɓdywu}uW\S|ejuxyf_k>fip]xNqzwu}\mFI[tiexy^h>~Rn|use{avrMxwlrdSl\zaM~lr?ynKF`oybWYsXedRymzrZrzsVgkjtpak6s`SfmqFrwuz7bukyhgW?vptzoX?jqtajc`ek|ybnwOGvb>~~rcRV7`_xoinu|~^z~Y|_tOqxk~Q{z5vQm|hCzԨoyQmwrjura}~oehl]:}Ut|TfngwitLyyl:m}jwX~z~RXtvdwNmcZLmhTxO\eokns}xR|P\|qwtqjwauUx~RsQ5]yņX]iryb\}x{y}xoorpXiti͡di8pnjuNrmj]PfBq^LBnz[xXswy{`Wu{hopZ}rh^sq¸@[ηpSjrornww]l`sg9Te}ruv{[vt~i˄@r|_^SbpOU?uwm\_|tϑ}vM|s{~xQzYxm^X{\K8Ja}SyN}]x|j_mhZzsƆnUguQk|drr]y]syerov{f[SoeyS\\^CtpM||trOXcuM}@<~Y~xUmUcjbzueikOr4>qs{f^z\bOtzMAepdyy|0ozpk\ik|}H~PwWQdmmy}}}\_k~WQ|ȕky]}H)iwn`}knnS{X|hmt}_u \_UFxjlS0uzzwacrKnj^3yRNcger~mPwnhaeh~skqiiw{~pyRb_bi~Matszyxys[}kpTXo_ǖdgnyE_Kpm~AH\|thKMn{y~x^tZxlh[cTxgmig^]b٩|xgz\xfqrKig[ukpT/sXidm~~JrzwWnvhqlh\dd|lJtjpm|{lvqobwsXxysp}{x_uRg]azyg}Unqx|vfqlhtkybw~~t[q|ZTg|}|oduftGr;vbTkUopVqoqz[v5}qsrp~pT`~PjǂRoN=ÀxB~Q~|rt~FZRz[hbxZVvclyeU{tf_sc^PzZ]1gx[^gz?rP`Y[i~|{\S_^lwtjrpjfjlRjtÚ\imw]q@rfoahl}Ǡ~nnu}jXSfUnnUZwzfrfpbkw_}fhE~SNzLo7t`kja^qr|{TĂigWhgpkhvznGZ?a=YkSW[qYTu]hhrL:|^z~oy{P\tukugcesyu`ībe_}yy}udVPSǩDaosx:bnmN|hyEDrgxu{Qr[No~|dcxeuekzimnݏ|ab~jubjpUU}rffj~\s|{Y]vkphĒxvotnxcJr[W㋝Xj}dvj}kmxlytnd`NVUspa^{ezljroofhfnoqf/h_b}zzsjnKyuf{tau\ovky[ntX~Q[mi^Ri|g{OsKsu@bo~{kY6VpjTiob[}xRyt|blwVÆX}x@qzscJipdi_oUgpy_PN]MtdVw&ongme^hf|P:wkM{D`D=v`hYKeyaTqp+eyMPHrY{\Zq~iOf7Ux}eBtvnyli~ggburkRtPtt`tuM.qEinp`f{jqm}{]_aVzpdZ{ewSn{eQjn{|s`ym_kVuvz{yyqwlyѮxc6dy}bf6i}YkTcwfniiMw~m{kGu|QjFcexmxHa~|aqEdn|jlMp~rfmy~gxnh}>iiZZ|ahrf{ckT]`5Ef|QhvFun{vgo|\bmZxłЈv`)fgjk~W{vxVvadnrQsnuGh^HftmhjRx}eXvD|h_qj|䂉uejza~jz|f;XycJfFghPpn~IpzdOFtNNrqvcMx[uEktNqQ~sUd{~OY~Sxicajsv[hp}|k^s[jEUw]i[ܼzivl\f~}|wwpAW|r~3ktGz<rq_vbzm`/xar_CWznv\{\:vdvT{yrfYwdo7}eWpe{b}vtԞvptiNakFTssTbe]lzmv}tu|\6~tf\m|uvZhr_hjFq^yRcstm}pSgFkOf[qMHxn\d_Lh{fnZk:ISag}yiUx|~g~h|h|ox}hhi<[l~vr~lh{Itf}8zZeJVd~{\ZXmj|b_yQjVzs_q{Zbemm{ywa{vfxrprk~nmr|xxl{uPzOSwvx<]|fq{ik~~_iuv~toi_cU{{}xmhvR^e~ngw{pdjnxOalZoLPsj^{w@gScm5nxt͛jZgc[ŚyDG}SqGwh3[v}fuuV_snp]{v_s?jv\k}vafvpiEkxt@`v{I[Vz)j[xgvst~\v|mIm|rqpfok~`[/auxi\q^oz{CpgnqfHeyy{{}rnRws}}_tyny _dswLr~wq{rdlpWsmzmypvvR\u{jaex~{YRvkKn_zje{wh\IpjoTfxz]}ewe8}jqumbnh}zCIwYZ]FQ}hztmp|hy}tdUuG[o>}e[y|ghvgyh=djYXwpj{cQ^v}~f?[}wdtqs}WZPRnҁdqrkmG[g2XrVgqNTun{|}xAqt_r~Wg^qYq_<Tb|wgwnq|{iiAlt~Ãisgsgn{d5}jzuzVcx^tmPu}nw_},nY`ki<Yb_cqvvsIϐZuvs<q`cqWzrH>Kq_<is{}]o=scs[a~Wxed]KNPy~kzRwn|huv_v`NrnfRocycTzKnro}mdtBvOn}u]aWaAlzmTP^eknhx|ykcq|{}qlhxxxy1~Uq[ΚnvnvW|{_{uLdf{{LxYa[Y\pkRKimoEn=RqMG_Nw^|NQpҲoloYr>Pv\}{kmUad>wpShw~kmt`a{osd|lB_y{Pu[vEybхuH;/u=wisچwxlycnkwnxMxI~g~[pRiaddxPG{axtJuzlusu|zaqtgejjSuxtzhNz|il[mrrqE\^A^zHbt^{|bj|j|zl>kvvhdwonc]g}dXigwYpcoxYjV]lo~|Zl'zZxslMwseo{~^]_mSzu]uca|CqZOo`]wzgYhlbR^cYm~bwMTte~jxMZz~|e^jh+nfurx{xkg~Xwu}]r؇Lh4M~eoiiuqQpaSvjZv~_xk]}t_j{ucheoF{lj_wtoiqnTd_pp^Zzx}JulfMenyX`{{oq~woYvojI}dmxΦyz}^uWõo_xwSq{rvqvR|U{qh}z|peu}jx_gRg^mcj|itVwfdlَ^iadm}Wcruc_[ha&r9sw|{`szTSh`zphj|zvitqhW|mr\qWqtxrXQ{fnkac}Uy~nsg~b[pWnhdYpvfjWwx^Cw`z__{~|cVjowWMbա{Xf^z`׎gj}m`IaifEsmglaj_r|käyrs|hQ\R+n̏SsyFkfenpxrqq~y]z[ĒtyqjLXn~I|O}fIdkamev`tosDdtuQǏTTC{{u|wk[}ezgSSwbmytuhxw{xp`Bdrvtpfj{}fo^g\]mq{Ջ[jR^xgh_k{dT1at\sXIvZv}pvWdbkPun|}hr~BgXIƏc[i_~|q|g}lf|]VuguWmz5pF~zgGe5Lay^UihziZKVowEi|lrinf}Mt`wxTN}og|`n>f|uxc|in[ZzfymQfy]zidqq}hrf}NPCC~x_vyXAi~uYy4ots|xPUWprcn|ctjmmubSqotmtrgt6aap~Äo{tdaeǨf|~kMvȖ^kdhkhUdgbDwvtsvbdXyNkndly\UjdjtXJroyZlyb\gPҜQɥ~rnuqZo{cwo|mŤxol~xv\zswtF}s|XeSvn߀Qd~kyf[tr̃k{U׮yvOWt\xmYf}rqhH]fz9xbʐjrlis_Pw~B7Exhhujqan{bTiexk`sfj[Q|`Ppf|ӒIhƿz|^xez{?Kl?zYoQdwZ=TJinZuxfY؁iiax|t_qh9>c5qpARlC`c_y[cBvxZ`[ohm|xR}w6ii4bvKw7qnyELtfllyrWgbt|ov}tNR~Po{ptvkRHdojHYk;eq:Cwu}\q~{npvkhwvdxGQd{V|^Qp:uxhVoVX<aik<vxr:P1lz}oudV\q_lyi~RXqY_{zxvt|mLknj~vnrv[bdogqNhhO|dh{duuliVtnM~zՍ|Ufyt~uxr?g^jtwm@jXdg`{{__{[mQi{TrqI>SU¡vYxb|Wq=_TtxVEV_{FZJrxtОm~rx7hklyhydxeienmdaywmyazpmzF[|WfjVcKkd[[d|ctzma~uwxvo7wmn^!{suOexjK_ugzkIVlXnIp~rj|^wlFp{nrarhdtkse0c\ucu_DiWC^fĐ^rjhLzoim_7cϐh_~}xMwxmultvrqutme]~jj}OikWpjUlEJA|\?}{GyPrv~`NV~`rqq?lsu=suZ`k[\mbarwjcssz`stvHhE[tlvlksr^nHglm^qŝmJ^p|s_xs[coqm]ok@qitwha}Zw]kbuo~Mmxm_}py`m{uycDUy=h/oTLiΙlYj}>i~f~Lol_mVnȰjxiVntWd6wqp}lg]Oymz[wkost\grqsf|M|~zy5WpSltd~ydU}UjkfCnsao_bkRwStPi]gZItwvDt{pasONqdYY^ZlpmdVoZk}sbrh]Yzo^sWqopjo]{b`Z55h}rw8~HLunxkJ|om{`wl[/nf|lpEmnuPvi`e{xzyWn<}n{~I~d~rwX\o]ĥԩAf[veyh|kvurle\y)2tlSju|iakx7ylsFrj\wbYf\<Eh[oBrgddj{ys{}nnyeMei^m~stPry}~imFl[xdipmTwgn[}k|xktk{mrxXLǕgndi_]Atvh@Hie}e|AApzwtxRyR?asVwOYP}mcenhV_sGU}f[zn\pJz{?Ztюaur\~~_pgzrt:`mttwEkGN|]{_}kx|1beyscwZW^}{slufnP[RƟdmrn{}}{Pybq}R_5tvrqdd~ukx|f_fauzsXF^y~qRE<ǫxt̂qpdViquyrg{Q]umdywll~wvc8<tVlxyy^xwj{Ar[uoSzXfsw~kSmnqupboT{Xn~zyuWfltxaznbjS|]mxq~x\pdolpomZNoPg[LNvj_DsTt`mf_i~oiqzzxs`݌{~jdWt{t\s[avVkxMe]quiQqaXpSziarbzQ>zVWjxU`Q\Sub]cvyc\LsVNAmpT<u{xY}x~elJUjvwpxf}|zylqirTjMvfmXJaxPwXtpX~so}b^oVcStufri_Ulp]~ZjjzUg{T~OCqiXH`rHzxn}rtTNR{vNsUjieq{ajf}us[q_aK<s|eo@zhnykzr}W{oburq<kshyYk@hG[vgxe_DIvj~xŅ\Th~p|m~kCyR}rCcf[ilIalMoS<_׍?{SjG\ۅRwbeqkWA}}{}bד\;r^^gU+}yj}^Yw4KhvTo|x}hrWnp^nvsfAxvfvk|Jenziza+twOW|wlc̅euNrEO̷qkoj_w~oi7c`zXp}SYfur_V}zQ<o{rqmeeo~}smvUVf|\mXzw[k`iPUjnwewByiozx}pynhVt*cYcnkj\bNMoaov}zhusgst|@luM`{xyozuim~rzyzp]Xeeɟ^jSeQxXo[dcrLdwi[IzhcE|pyew|}Yv[VqOypuxyTtfS`n_dSX^lpm|e=mydyspfelNCq{cx~fCp|du}HQ|{Aqcj`dxQN^2oVphbU`fBqyhx_|il|tImĜB{QuIlhSWkJ^~{`yl^{_`h[~QMC~x|kd~MEp]Sy{X^plWl@UaNjneqfZsi(yÎ{uTW~^v|c}|h^fka^tk`{syga`xIiUUbiVy}pQZhvo^wkn]`WYowyWfzhWv¢yJWH{wl;isszRgƍTauo|yU[w(}x\ByHtՂ@g~^jSw[sYvf]|Sr`o|UmwmʐmFa^[{xclIoko|~}Vz`{>y#davu}lrcrilx|KUoR{|zifxU{vwЧ_axpiÝ~OIam~qvt|OFiskTt{Onec_|Z|g|UXgq_p\ddi]DXM]ZsppoAh~}c{y^~^zgd_@eIEe}|q}kZsMslxe_eȒN~IX{O[?puCvofovni}hpm}_rdd6go{ŖdjfwŮ]d\o@kn^q˶ZR{d|5m{rixeg{r}\aWpV;trn_txvtWqu~RWsn@P`ji}lZfUϘcmt~|tiHinxArSyagc|KQs[dtreFb{[~]fqz̀kqyttT|`gzd~wqegb{rppf`_jp{=tnUi~js|jgvJckuuw\ulbfmo_jQnyU}wdqzpchg]rzogumzUc\Vr;spTw|x|U[pw|g^h?pstyyu`o}cZX6rmn^elyn^mon?`y~Unlq?WukdvSwU~Sw{obvpyTr|asOXQJ}g|cl]z^[_V^Fls]{TeqnFYubGnWbln{}T~t^p|=OKq}MnwrZczzy[tbcze^HUshKmlO]rspz~Ţbr@{ybgXnajlyq1i~I~|lgct}I{qЮ]nq`QwGZBX_Z{FZr[ImZlizzMYylgR]i}k\qanac|;zbVhtxflniuqtIYsic|_{hpsVX~wwcmyy}:|o`p[bbi<smg{dqxavbtyxabht>7[7v[lvW}ߔpofykSyyQquw_^ihq_bsw|~gyrRxwpcMQVp_s~mt|Akt[p˄~]~wg\wVMwxLx[q[P`lkPeycrvHd_xxQJ`fv{oo~5]Vuu<uHLVtjs}i\xd~k^mMyvwkljyohuNKqtXw{u]ssj`fNkR]}}gUYXT^_qflxLQzUdˍzviy>gy_Lz]rjtik|mκrxgUwqohyxUwiye?Dompemds_tPm[nt^ok`͈`dvXwIdKWihm;t[l{{{e\rqrZYGt<rwtwtcDnsj{q|dtb\ygx[~~jqNm|;ksPwzAo}s~rvdu`uWZkmbx]j?Vfczol^cXS^`qzg]wsmK~riV6dii}wdRroT`ovE]vqUtK{uw`zgRO\uR^{uQac}]|yv[~pYAP^Fledn|pyogsti/]zcWS\[^Lhh}Uoohvn}{mspwwelk\pďkn_uwHVzx/QtWr~rbTkUvmvǃ^s`sfqTa_0UvS{xU~nTo}VzR[eqM}MRoieswssyvsqvȀzGaGX`rb}b[]mFwguGmtVhjqfghOulDvNxkxc{gdzVhrmOsin}sT{tzz~LxJǣɎ~WvyF`ohawmse^][q~Lx~Wub*\mj΋d|xmI\lXjkmMr[mj}y~xIgᅯLzt]mSdqWggIvluqtcguG_rtXiwlRuqܙlwuk}mmwzYty_QqpzAweklwy}YbàppKren=`zY}sdPUcbL{zy{|drSofwt~fc;xvi`lkX^fbyrfxa`v{b}npzyd5R_qgkckgZ>ncot~sw|dQxj_laJnrEVHzrw]}hJmc}`rv`wurrd*plqn^s|ZؗpN{^qtgoYx|VglwSiw>_m[py}|udƤq}rwUvXZtodoEnQuh^z_`jVi8zʙ_Onuy}M~rqcEqXl|fVW~wxz^XyI~T_lr|y]sj[kÖjYetiouqEi}RdQ\vQZsWgVAΘsf]cp[yRksDi<ӂtpoZ_dsmkXsLwuzpvu{lWJswqsv}{jwˈrvVw^[T`n~{fy[puYlydGzwnTacnx~hkBJdjGeshkdfÓurn7_T}myu|c|hn?uCw_tjà@SxhvzyfU}}_wMmk]criqLLwndu]DtvhMQrk`nk}rsdd[{ffNWVfP~vvmfZ}xzHuX{ˉdjaSw8tTnrQ|hqewye[Tu\{}qmR{ngTx;btLgw\o\b3ue\|hbhqeztI.^lfZopsfkBqpwoguvYrus WNqjyTxm1<h_nM_Te}tb}_.iWSQc_}rp^|qb_HSjxYO:bK}F|kukIvuYuruvqdbr~kfYatxzzJHrWhEpUBm7}~d]`f]zvoTK`kRw6eZhaSqtlpgznX~Zhqinyrypt`eltg~|bvskU^vIvt|U|vzy~5,_j}cX=ynp_6w^olBn^Mb}\zcpbsje\U^Oh~{{bBhx~fbcx~~{i_w/nX[q-N`utxnqx{?aʒkuht[HNm=qjסfvXzi}Těn<t~VnSaz{`dn`s|sIY|j{hlMzsixtvTv~oa]e>`NsĚpoiu_bobkb[[{ss|mXg[W|wm{6zR\`zUmpEoO`{cqCnY{hi[[M{^g_Ɩ9KdRoĕwtc}z~Z{O~}zndosCX~akn~[_W{sf`trȪodzcgabZ^lx|Juwm@znWt`o_|ɧligXz0g{Rgak_jvs{_]kkJiLwPyyo{׋_mxnqg|r̐Z\h`euolKq|myx\çq5Plytk`|i7GzWDRsz|7DuxwWKJht슡hm|ovrGRR`Xvay-@pjjwojszsƃslpy[\oucjbpGNQyX_ehtvGjƕxuduuYc|aۇQhzznsvoN>pi}u~nSNO~u[uuiajlKj~8mlAv|znz|KZbp}Rt}|h{kRvbdapI~k9¬mevJ{~pEa[p`^ptgiz~jwx[Pbw~|؁jzyf^xh^k[jyT~Qa^cx|vŪ}{Yub_iրihc^AQc{Wykeefn~av{g\tRywhR\qtb_bom}bVw`u:dpY^cl[_kjklz9}b^fe|xpPlcewqˑsXTs(iZkYuff7t~_qrρjk[JKuzmvsslU[yd^zasr{mugKkw]_qc~eVVfii^=wͤruq^x{k9vyÆmNVm{_|c|zI}fwf>{qnlattpwnz`G}wgxjxjjt~Vİ]Yr^o}nfmDu}W>XpbpzlCygyc~TdanNxU}cbwmec6mbĥYG/Un_lUjls6^~q6H||ouoq|tsHŧwuRqqWntgeyw{xc~z{gvxuX[w~lY|ywziTmtjgMf}}WtOgptq~xnn^}cRWc}jW>sdH^vgugztLYuiSmhZwzQpfjyta{=a|iliZ7TulguertxlcaSB{wc|jwpe}f=Y_UKvgdxtu`eneUtrV}tpudςfiZSrUϝ|`~agwhocKwCYq{z^crmrPhKgiShvtc(qN{yzgfm|jxwsDUzKeO{zsxk|}rXs]xhvP`_cOoɃ_vqwnѷpr_bc[ueY`Tbondm_OySFSqlcLdbkOzypXcwq^ǔompdJ:e~~{uP}[_|f~ffuyhwFenoW ܐSj\pheeXi;utiW~tv}upszgficuTuxmgcdmwb|Slr_o[WXՎSUR}S{_QwccKtpgsMfpoYrx]Z=~yuYnVdwG@n|odnovܔh-ΣmcdqgsCykURrdt}vo}x~onesu_w|o}>w܅jmoi{et}abs|ZHfwhRggthOBao~d_U|w`uck_uq\s_`x_qKdHxddnTtxSsSYaldqG}purpUҡMO~̎iN|}fNh]`\xxnQz}yQUmdq~bnb}mM6xuzr;ĩIu}l]Zv`xZx^DofhoS[T~Zds`ovzfrY+}|_|`ktt_}uhğt}uQhPQ`}fH3oouyqB%dhWBrmlVRqdft~oimq̚cczy\qYzCGDd~Lf@Wy|veOɢRjt\PvtsMz.c5IquyDmDonz\̈́VnyuW}dxYtu]B{N|R[ZF)ho[]aMtb]fVV`uQhcfppY^rʤ^`|zttvof}^Q>vg~uD`9k=\RVxbmvߒeb~ZV}bkqYybxor}$xtynKpcb_gnorbvI]^`aX\{ljqwlwJhwd0VUhDxqFrz\z~yTg/VuR|]sϒjiNm8hgpWdgwhoe|xx{^Ea{pnw_jd}rѕ]TzdMtepcUx|aqfzjoquJxrrvsQvhquu\ry&hl\XlUnqW\XpmbSn}xvE|Ytzlx{otu}phkZhzaUb=u]r}pzh\u]uxwpJormV]~DlqxctLo|jdrjcIkJizUVXpw^oPdKAyncb&ms}oHO{xxhrcj{u|t|qnɖrkgZVWiz|_idWwjgrorhJz.wC.XWskucfXzrPiXnxXj|Zm_\ĭd{lkPc_t}ksr}k`[NkfkwL^iw{faetI@}tFDiONoLkc`Xnz~|u\s_Q/qquYrv|i_hgbj\W_zdjQr{TxC_bǁrm~_uzFlimpm[wZlzp-mns]K{rvQp:xZUswy`XN{veynq;#_}eGˏnPeei^r9U^bBnmsqTXhȘm\ȂTvNN~^?IjXunXgsaVyIbbobur_H^ck{i`ikfcjrqZi_NUrhw`ntwtnrmfNLzyjv}pmkiw`|~[aRgffrh}u`vvw{oL{TGheb{z]t\zolnFvzef}sEsfSpy|s}are8h}c{w~sqJUqwǂDxeuRjxwH|ivjrbFbmjaQl[^tos>Ui\Z}uopȎwaz}xu]Xo~|sWVYYAB`qqru;kI|zkJgKskxvmzmwz{w`k>yXj@t}nrzav~\axvXaguj}tjy`uiD{qg~HhuÛy}Uxh|l~jdpnwrokB\lFi[r{~9lYsdQ6^ypfOt̟nJes}}|]nduv}uwzlTQau|qweoy^esM[gduca~udy\l_fv]c{~xdx|XdV~sulnryyPdYajZvD{IpanGbnvre}iR3sffQvq{Ofs'c{|vy{HA_TefhWZ}pFkvJgrgwlSIdD~xskivYzofZp^nUsZ|enl{P[ii[:c^|vF#`u\uجn\fsXvthMsiRjnjg[`~o<yxPMqH}ppyQ}nf|\xNoB6}y4W~[Zh`u0nzn^Wv^xd{Yvjluu_yloixzf܁yɠLm\ƨbfu_~|qx]xVr~x;q[znd_qw>Kdhnfwz̛]sa}Nwxz]b}dWvoMmS`E{tGQ:ub__]\x~^zgn~mpu{vep}=m`[q_rg~}Y`X|H`sS/rzceiqZmuXmcy:Jk{ehiDso{s`n`lmkSx:k~mYdupԎmsgmSirackxTwmh.m{j}|~[_NMhLO@jfGXl1kpUw{hrTbhavf9Yi_YCmh`4mZkyUmOnCjkClar_å}g|~lgqqXi|͍m}J{t;rQp~lyQ~si|jWjl#owmItkR^}j]V~V|j{UT`epkjPcoooZ~xhsqmP6m{yjc_[]Lc|sR{}}UiWx}Kz}aykA|sUCsyhii^{js`}GfamX`wmose{dYw|}LqKRfwkT~{r[ktth[IvrNfYs\JmpRUtmU}Nh{c[XuntgxmZW}d_jGh\|{RrtidyIntpyqqME\QqamqS}XxTJnTwyrrcRlY~p{]OYؗmk\vqcjls{k~DwwZQ|xw\sjnujwrFTnp]b\cwi`kvcbaVUpS[|ZlxHl]cmeps7_os2mESxapÁLJ]w{]ziwsXWrR}Nw{ygWoYa]iob|bfiqyGqde}^~p7o`Y[xK~RqPh|j{msdxezaw;nnPQj}uCms}P~fS}mpbzGdYEXPxw{sdp_xKmsadDurSwv8So|h>ud{iyq~ZG[~[gr]wcwgs^gzok^mneYnkrZgx>Kalhgt^?bGGZ|@gCr~WiToeWpdKEE~f^uLRdxvU`@S|xrPUr`dW{ksXx[^tAowt}_IMkl{Lrjfcr~w>xEglxar}rfXoWjij]ϋqU|jzm^~mQzyQ{[MLw_t͉}^OyLufkbe{R^VQkx@qu~ste[dpXty~qw~ri~wgrazyȚ]wf}Yjqi{`g}l~gϜk9h{vVn^_\spyzs_mRE[d ~\nza_ildr|}}MxVkCcszJbOZrcsjQ6aph}İ|Q{c}{^h`_mhlz]\g}nUyre|_wejkdܢuqnq[pprtt}r_|xug8}Pezy|DaivvwBqzec|tcY{QMr}xryٶxxa}MuVe{wzwG~gKhč`xSRtqpiim~|d}͂txvsiy:|PvwxjFVv`\tUh}k<\fGfXtlzXhcf|cWd{mpPOs~agxprycs\mmlhilt{nc|^z\FxW}p{tljgx{N\}zcYtu|rtXvCtlzvpaHt[KjzRDOso\~{n}P~1rGy];l_oE[}VxvnXa:cxoVvmJr~|vegvU^{y{yZmU7W]Nkin[uUgs|xKkzY]y]kWZ~^p>0PpyFx|xZ]gnqR^xxn`~kO~}uYu^lNryNwgzz|M^nzUouA[{oejIrzQ<Z[lZfyXibtf~]TpTsywVT\Jw~UwpujȏXw_qsuizslrYwmX4Kwjjvv<epyck_Qe|zku_~x^r?pZGfebz]:}z`nL~@G{NkBX}m\jf}OnQ]Lvhpogsqy[NzarjpsVej]TXFq?|_tTRc_fnllCueHWxobgmatciawqxq[swzy|flˇq[zcn@j]wpi~ozyskttexzn}lOvkZVvpLjviUlLd~]rgy}IqxwVWyXxr~jNnOj`ikyOztdwsZ[vyoyUXi~[`<}]okXfimgltlya4{vc_u˭zjniun3nz_wrur|{sr`Dvvq~LqxQ[}hz|]OvWfuyN]qv\fW\JT)``~TwdV͵G|_ze{dwl_\gWlg`c[eqed}zi~st{^|`rspy?]3t~h`bxg|=?{kgÊpuuϢjJkR~tiyN~d$x|`Kq]R}iKxt`pmnw_pVdcX~Qqma}[fqx}`xdr9{znma{GXnxʯjfqwuLxncgrYMT|GhndPmt}N]cYqbugstyThbXlQkYqs}?xfajV|w{fmxhkoArwfy5oKmHe`jy]{qjlnsuxrdtvJq{fU`rX6iktF|e^wZP]rix]lsj[ҔzPg`o8[~v`ZtlNf|<dk}buso{Mw`wh^nshqfXtqOYӷpYtpjndZnJvvbqyFrg]]YfuyiscZt{J~Ey3v{~Dv|z{K{ul_`mgYgmpXyh^`~}TwazC+kVmzu^xlрc]YLDy]eaTnwcn<~lPj7Y>@wOo}nTNomjnVGWq3|[;mrÖf^OV]{Qhkz|PilMuhęIxwYp{~lzcbjrWi|az{kFy=N>oh]~~|eBŎZhZ]|6u]}Rmy@tEf`mvoZ_XvS~EwnBG[gUxZgAvrdnpemzvdZiz.irzsupxWrX{Lh4_iFc\V{gseyad~%xXvsbg<e}|irY~*zdrlƀdTPnRstrdo]~|z_{Lo?|Pqj|tgp~~iQtvIP~lp{~lm}dHtY|i|O7|[wTMx`ixlpX{{vmk|WpZzMqQhuZ}~\qzmc{|fiY}w[xlkz]{gPVVRw~ycswI4m_qd}j[O^o|amhWhy~`Z-iʇj{TPmvzjOn4mS[qzl]~w{|vY{tOaorwnKjyPf[tV^E|TvwWtN\WXlH^^tIsoxvxoarTzz1][vmyQeZUOtkwpir|_YRɮfrƂ`ec]cfqv&`os~e&pOίvlst{qtxv{ivgodmlhoOU|\xBssuznirjXwxtezzmSJoOf{uhmsvu|MpyUuXth^[qp|Irn{SgvlwkJe]fSccn{{gf}^sf~Dfthxfyf$p_ovr{uu|ͳYu~{epsPydhknr_t\JSjhwudcg˖jTf|jfN[lyuO\^t<iZZ`lĔM_z`zwg~^u+pQJytr]Z|w~~IxIkY;ejyoRtnxTbnUn_vǟhzz^`a?f=c)xr_c]lpve{nwMe̗ml|weqRujwhyTd}ucPdQee[w^#gY@_q~vrUpnTdPIllTp~rod\jv[|uq}t|PUrXdhbikzU`jQz^zhj8mjMf\k7a~V{zuXEu[v`typ|mNosnNH΁xpiznmQ\;A{tzyfBw|ak;_dvcX}j;[dU}Pyqo_\vI\t_G}~O`Yas^rhgPNlw}Tao`}\}iF~QnakN5egSAfwakQQdjnqwMx{xhiepk_`w]\s|XYanujI~Gn}puulEq~n4}lYmxd}F|qhxawjvkfVlp}lxiOVh\H\kMqpr}Y`ufVvOqnz`Y`ĖWfPYrl\s1lohio=q>běfmdFM~[{oSrk~jvi|fzY{Rqtqt\kutUJvwi\5̑^k|lu]ZQuh}Eg6ZKn[rlbmrfkrr^Zpznc}jw`wdw~g}nbVpsd@o]haR}vihb[ttqqrj^qeQzv{^qwUPP>s[lnDphYz[UbxSir_Wtnl>v{{Q]gnHStzi[l_iqymkqj`bFffwdj{ʲZQԉs|gg~I:zgp{Uxn_ɠIhգupuv^sX]felǙbZh}dcVeHwTq@Zf_i|=X[a{mפ]iQPflx6F{]pzqZYcŞhi[tn}njyiP{[kXT}g}wdq/z_rcq}Thƌems]TŁi}gc~`PAy]J4[LmuvKiivFgqq|Jxxq[oxXxb|~x~w_|`~Efhdh]WheWtyTniyoZsmIzQjmduZ~y|tWeyt|eTa|h{PIe|]FVopotNfn^o}lŚI{mKeJj~wt{_udbIhQ}]o|v}]ephr0em`ZWǔjcryiItXt~lbsl]cuqpgklx|wYjbd"ar}t{G\xpy|qVhy{uE^eN}}mDfovQfsƋpbt]DfR<[\wzje~F|N|ibo~rixevqbeGrvtdzZq|{<cXqgloyjtGbu~g\h]Xu~cZoX|`imZ~f_Pw>Usdvy[wrJ`yw}^tuuwiTlhPSZurgsIU|akpNLzΡQMW}`vKhnzXb~Ij8xiM}giVp+t0~|gXRuy|ngmLigUz`in[sdyxxduZe~U`g_1fgz~b^}F{cq|{`qnbqt]zg`mkNiU}nM|x_rrm_tTbcs~h[|aЁ\sii\wkvypuclrozIkaWoude|`drk0mtww>uvohtX{{DdZsddIjLs{hz\|xK|qfht]j[wSL^Vnmu~n6B}qV$q}_[SbsRuz4[TiwrEnqq}znzI_rkc3vyvhlj|ZywftRHcnVWPtkfmDyk[zU[eYckhYr}\e|a|vfvnhjgtfwqppJHuMfu^wz]fi^b_yxZ^khID{rgp^sVd^^Kxmycrx^]by`yxwg|xkyR]Nqptt|lvr6oYTBl|u<yzrePax9R7ZXaaisT]u|JyuyTNngoxnВS|Ocirffov|dl]Yy{yluhsmwrlu}`]mv_~rg?lltBgwmyyunn_fN~WsmebJoȄq}`w~~.O{pvfUZFr}bgwuNKrv~}Ez\{lqbn]am^idy[\pU}vadz_ydoyy\KzihiyY|hsX;ba_ulzOxBtVu:vqz{S>}mdwsyzxw=typudfd}{a{{.mh{wx}MyzxYuɑ^XsL|{ϧqGwyFpRRXr^tnl\pRʏxbvl:n}Yqykpt}dkS_g@}Vfҁq}nQx{jmnkfzrjcogfZ<abqojx@OdcokxwkI`hWyyIlq_|qsd|nlwKw}bsnt~tkgz>Mh]SĠsu^{u[qn[xw~tQMqsuxes|pxcRoWlbJeys]g_ig|^vYYLpjLmVhMfubw~ClyofaRt:ĕmyqw_kiio`ilbhekdrSz[νŧMutXyYex^tv~kBipm-us{`~zjtxkc^f~vdPaOgQah`phV@jk[|xWm[?rvo~l|?fQapr\iv{xmaqfPnp]wyfiE^p`y`?rVti~WokruR_cWWgmwyg\^hVdQYpwzS|t]TV[qcLojugx`zsltȮmnVAx>tMTn~M}]hvus]]tvBlpus\lLZ~T^glQI~q{n_LppZkymYbpjuzTbih{|U\x{Ɋtvnm[Wql|ivnNanxy^zvsBcxvyRj}@YGvxjt~Ay>IwT_hW}z^~qf}}SQo\qmcScwjxj[b|K]e]tTcwsJg}{srX`B][zwy`qVzdzq}N]aY`vfG`tWwx{yfmnq|ISp@È_eyUɋLV[{NqtmPU_|Ӡjpmw\eSnnbj{}i׃sdQf[tulw|xnmYlxgnymnuLfppc^]\hʢw:*j[ugc;zikz`ǥ|leisisU?k|woiqğȈzyegg`}xW]~xryntYzjusYneoSyyLx}uxunwbZwSken:~i{fqjr\hxyktzQuYkhghIuskgQynie%^rkvvoaiUhxzvyh\OwqxgM]tirsJdxZQg~ǤcgktgZ{ve}tZuXbzyyd`vpviURxyqpYb~bnlsaNWa_yWoUyztѥcajXYz|txMtf`Xrw<ecUWnSl|k|\Ndcm\iSCrizznVx~mWfyN>qr`pfnĞ+k~{nOny^xr}h:qd~J[Zrv_fmHcW\јdjѝp`h\lj^`Ydw\u{9e|Q~xr\~q`}b[ad=\{yxrtJ>}Yo\}W~iđA{Rooe[uy|Aw~cVusZy}\pY}Da|ej|ÇfidOVqhiErx|Nw_owzKs*eYXmeHS}u|uqzu9}_hHY{B~p9xyfgr{wnjk}fbnYjNckN|frbwJRsfSe¢n_~teg~f||ikpsx8yvzx|PsZ\cn`}zmbzk~f<r_oLvrgerxZ}d_;r|QL|fspzXs_{4|u<oPhcssz[owtrC}h_~r[YN[SWqreS[Wa`^`fnpCc`;skghpeduVnrv{tH^z|}vUTvzzxyJjyi~lŬ}QÓWPcvqkHzSHVvwmujgEmp~hu]VmMwcsuof~qWcVjmxkjx}m@6twyvhG]d]{Vw`rYepwubuxek\Ţ}Zxq{hmqf~lr\rxjلah\rKvan}uj{sscQ{jf^i5}y^iMzR~y~}}p}_pweʌut:bvDuVNg`]okqrQ^Mpyepyarȋp{m]smtDCs?NUbWcf~l|gQZT\qmukr\Ocagv}{Vs}wfmv_jvXQVsuekύxp\{ZgSD^`{stfft_eZcţzn}YX]~]fdNjz^pihi~QIlxpf{mHTrK[t3H`PbGknɖuPr^vC|t_cbZ]uwzWE^xjvQhVvVrDxyo[XR^llÿc}|ԥkL|QuSacg_b\|psZoxi?Ncp_<vqslhb~hH^tpqP9dkOsaq{zKo[ottotg}{nom}oc]{Wt[eOSj_yPpv_~͚k<ire`jYrvxяyfpfmvrptltfi&dclry~HLIYrhvffitnvp>E{on\Y^v{{sjnxo[{ok^jnY_\XyUb'ky|nWxs_sv`lX]vvbp]WTOj`v~qz|vCúp]cqуa[nW~toelwqelj]}_trTu{ydGwihcujh[Rsti}|[lrD͸\kTw\^`us_qtcf{^i^`xtuUownhZ|n{m}iin\qHyraqt_Ycp}uevxU{ll,n|UStlH~yrjWv@|hlBphzWinwqvdket`YMpx]~vuqg{wbv9kjt[ms|na`Qw~@SwY~l{eopbChbziWmdKn~luM}sesd_{`Ux\}GxSL|{h\[}?bV=yW|ejz~ozusrr~xvSzkrvXxema^Vbsdziw`zh^wvybrl}qէftpxVSdlyf}sgZxs[twik~wenrd}hO~oxkjiaȔMcEw}tG`]yr@\tzwUigQXRn}zUkZmrob`WVyqxOruPw鷨bZzxao9ctm\o_joio~goz֤v{Limzcce|tl}derNyIoB@@>unYmeˬTOm7udet(nDefaxmjNwkhrvk`akv^[VzggqGsasFv\jW[ghesqM|swqZz~d~4[l~Aoshj~dl`dyur|lz}ULuqlutB|uţc~gGfx]AYz\oL_jhq[ocy]`R}>J]!Tv~qphmNgu_yQ}{Rs?`pWUSsrui}[a[~yhbPM7ǩxqv{TnX{v~oei4]]Ejwl{{zes{^ik}}_zgzGzig`rhpy΄ThғDwgDpZVgguUuaj\m{fFkdb`as~dvGuowpi|zsIl||w{`~]Sq~SsVdpylxhxqhPfm}vi|Sj?xh{RĈyzxi|x`cl]NwxcvwVskg~',bu[Irwmo^yPBU`qmgj`^|~y/czuzn|e}vtk{xbhwxjxXFruvjgtt<ph|{qwyxt}pϓKv{zq`j}lpXvblhzSirvytwjxJf}eqqfpRjl^Zynmq|suaohWq@\fwmYgAdthLnYLj`Tsezx^e}pzhsiӆezq\͈m_ado^jobdiMkE{f~Qo{UXvMna~emjn{MhtlsƅsQup)wfuwthNSƆ^bnLj|b1vj_{P=C`g;ZfZH~lf}^sMyNsT}huvaUr`xqqS|n_jqaU{ewUUim hri;ċ~oNz^^5\SYhjqa|}c}_wXjf}@or[g~utdsI]PYx]m{RjAuVqqeQqgzezi`^wdq^Vgf:eBdkpf~]oEpvh8`X~gdMifGyfp˳igP~`\8}Ul|yhlJx_sQfKSUszptDucQg`x{WmnxErvjZ|ItxnZnp^h6khxezusz^auqtjlxur@Vsd~Q}o@aV`tw>aatby{{x^omFr^zhxyXlkuno|v}Svesq}c}̟^z\lyBjw|T^`cuXuK{|\bKZ`rYp}*|Xo|UpjbrbhPntg_y}fc[bcuuYX^>_qud}aRjgz{yw[Tczqd{lIqXeyp|y-f*u+ebngc-.{tZNoxmpdgVf|WtchsL_Vk`Z`pnrqPuoh@qu}AmqwqW{uXneZSl]Ttwj{p~u(qs|RhjrA|p{9|d9y^Kv{[|Iin|pWzHcfgpYiIk^x}]qt}VNw{WLtm}ptņ5ycztͷ\|zokpy}vX~xiUvWl_~ESrsKcmEouDOJdY}[NnhtqyrxlrUuv{Yzt^`mccjf?m=[Ub_{hs]=~op`idzz}{cĩyhqO~V_o_{zgj}wkIQ}UpllpZ4yib|nwmnyoc{Yasdxourtj@{~MHzr~^Qwq{pnHv}b]_wQ_Fun^|vsR{klnEdoaj}W|e~w~jcv^|oFbup9[uvtoqthI_m0|RzsLmojjkhzarҡ|Nv_qiQ|L9ɝgnltV{pnXjXls_gj2xnQwbV[lXu{q|c~mwǊI~qofzowNv5itfOUV?hCTwE}z~so@mypf][zZwxZcv__ztrhj|oBhrK^.g_f|qz}xzyso~^XlUggbsk|z|l~sCp|bssdRwhGziEy^E~hmcwP}hh~P`_xano~w^Nmm{Ho\yPliJXbvxHdy{~fOtWgWjporZ{gqsLZ`sp7jlzdaFxq~uifiťrgona~vys|\[nŉ~JhqNmwh|YLupYtdiZ~er~~a|zvn@Opss{yX~nHnjmcfN_o_SvJu]oPmm~xvf*HpsqOdrOakr}jza{x~o=Yn~xyJim{nUplww_{OWŋZ_Dng?wauzcuYexvRsbrrjSa_r~wb~{izH\z@vlvzzÊfAsen}ni]y}PcxkpJ{l{RUf{q;tJ~Youv8s`kw|O}xhm[i\rkj͚ik[L~agwzsMk^zWhuo5vvs~voimcd}9qX^el|PYpt[e}lt7fuc]eplŎdYBaTawdoclovKbyx]lcmчOwILBpcq?lprhw,jUgRÛFopW][~xw`Y{;^fPzuZdwcxvku:SQme~Ä~ԉs}q^2q[yg^n_Zh`Sq}<dc}zxryNmgVopq]XukinpqW^_zzmP~|[{u_cxahWj}ggn`[GxuVZz1tzsNtŀdq_{|Oi}~mzu}Apz~vzonsnu8vT|OwPncE}m|Ps}b\UЄi5hc{y}qcxb|bRzhcFKR{~FiXVn}V_VXukisTchu`e~AXMweGdxM_kTcfcl|dyfuc{x{oZ^yeV[g}qBR}|qw^lbtYwoa}cxqqpDtƌFk\`_{[evjb\m`^@\U;r]oVv`ʉsfsa{]J~bP(|Ucnrv}EeKjDj~t{~yyu|OaK~q|l6NQjRlg|_IN]_mBoffympbnXOmgg{zp{UR|`UEnh|tVQkQQ]ozpFcqyZe9w}7Q@7nuweN|yxzdpbc}vpiY`Wjno\\]smvWmNMiQ5~}bCak|oXs]apmnn7nҀh`qxrlvYRvmvrxxt}RuxƧwzI``|u{sqf}y}kiQbX{AgRYiXznybm{jrntrsqڈt]ۮdnpbM}`fScRw8}yy*uhf[t`\{r]`lHoytv?znkmrPtɈPxly_g,p||kc|`ucfouLXBzvenr[tn``[fprg|sdjjhnDiocjq__xftSV_z]lmb|yodhf|Zzv{ghbvre¨oXfSvtzc[@zZ}^lhGlx_s}}]{JzhPYpEseqm9ZqzeqPadobvgXJokve\|qup[ojatrlHhraerz_VUayElbigwywyU`]nJiy~^eԉmPO`{xGgt~bzkt٤vnjlbylU[v}{9gjqXdhg_qjtPn:fQ|JU/h_AnmjlfH}qx[OtvRz[p9gh|^JuW^{R~{~hYzx{H^[uUQ~po~ra|wzozyygtoX}tkcht8}jnlxlaamFgz]gevhez}G|eyeeqw}r]reL?ps^JLbfl[}gwfVG`hIy`i̊Wtoty\{ol\O^gw}_x?k|q]cfK\c{ckccrot~ysmfQoiX}z^xxmuOq|tkj@qXwo}^qioca{'bRcAvkiyRd)kr\t@l{c{FW~th]nv{fν\kszhq|xz}s|cLUq\f{Wb~xz^lZcQvE^a~y[uwl~{|[lkjd]kjsweu|QaQrh^yYbtY_i[nec}Xhim{{ӈ^]vYtnckGc\^c}__AjUkd~\[d|ljȌ}t`f~tUH8mw|up5RbEkdpfNZp]ers}j#b|Rv^drnO}nuQxlmRNamex]xWzKiypO^kro}{qoqܐbFlws9@p~qyqcMQX{yuhdeRe~uzvqwAo(bezriiZ}now~Xꙗ|ovzjplth̶`2bOvyTnhwY]ezQeBv|xjyLrGcfNv[<S{s\(myV{|wgoz~mert_AaS{Ll]ar~H|pR{wrhpOzmYpZ_b`~_bppxJ{dcYpvhg{}tnxE\~uYspazctdl~VpIgk|~bmwtrovmh^}{}Jb{b{oRnskdjvveBLO[xcg\maFOq~]fmV}Mnzdoft]}jhoVp/^n}xtgvQ@bu\aScFFz{%rTx|'zb~鶑Cvy{{G|J`YKnfNco~Tc~e|KJjMjrh]|XyI~kIeK}oifyCq^bmg\zw~ŗxmXl9so~z{K^lxmg<ǗpqjtqQc|𓁭vsjJsxtYxyGJiv~zJuqukx1stiTW`$]g]oyXolOeDiemV<eO^|bLt|cVnl~k~yeuZnt[fcyjqYbh]}σc\[D`z_ze_~vztς|vxgVHsMnn=xY\ggrltifmxTgnTmeossgif\Toe8XL|v~^Fye`fAf~YiyTg}q_vkwdS\u|eIȇ{|T}\`Q»lPRrhųiJuPvgPX?kuxMc}xKbjot}hq{fwQǉV{`ztkV}gshlvZ{k|xupxwwbL]Z{x{xunSmlU_\x|fy5hWsj_|D4}~xnlgkwrn[z`_}rqpz]maum|igYzebu}emJXGhieeuszHipzpuzrO{ShnrRfgyXxwˋpLXYwzua|Rh\[anr`{JĘexx`tYlateohkjjvnRgNwad~z|i|uu^u|vx}SjySzÈQ{nndxkTDxvhnzj3vbxgsRYUebu|Sk}DoFi|jcm|W}ZUOMhmuxVk;qhicgX~mn|~uwe\dbXy2tsZ@Y<em[w~im{aS<cdxymeWN|Za}uvtL}aUyw[dGySus}TV}n}M[kre}f[TzUtseKyvzb^RCW\q_Rk=ccpWeph}{`r~ma|pnaTh~ZhrwkFkurJ|Ph`ljzvbfe_^{0U}ragSmv|MzEjFWllogrtfo}Zet~fIX|[mnQ^yn`YayW[Ë~orlitkOrcx^h}qcu[Twqy|^Lpu|aPTU`vXOtw|rԲkEQzYnyJrc}{sy>wyiv}-^A}Ywh}}ltk]vMqx}{LX}̮ddxzĉlWU{Zunxs|`pol~a\uaXw{]}cpMhxqĒ~pT\zqzRh~yJv}q|i^TO{zfnrVt[pwbbiiPSy[TrvtqxufowpaGxZBgLBrpXm+inQzxq]hy|yd{s]]XoEd_kZfIyutZtzdu|>kn]ro[ŮxJ`s~iJWtXCrii}zLjdeKhtmW@lÚqqzibfagopo{yne:fsfwiZsyP{r~w~mq`{mn=Wuvgt|Azsdؐlu~vt{^w{o{_xNDmb[mQN=uxoJ~\y^gszzMsz~XfuifYgfdLi^puNGuwieaapPyuKoq~hie5{ZgCWx^ancon^vU8n>FbSKAlnlbr@d|sCLw^}pD}ij~Fv|fcUnepsr\rzunl{kWGvQwsh`[xn~O}]dZ}pm+|uZl_4zvccyrhxLqXOh{eytcvvujnXn{?}eplZuBieOOXxppn]e~st\qzqfc]sXr|t}:oZƩdūvsB}taI7zeW~ISlgqF|dxo\8u[}X͈Wxd}fQxmpiUnT}`wIavn}yxcIvow]evfaQWmpMh¡zzdgdfM\}winwu<tivrpkbSXv`~RmwqX~܌qhzɊq0x^z]]}^_ZgFaGbtzJxvtlh\ZpTkWIQlxddVodgruu{W|_m$W~eQMz^akmfde|ubHlvf^Vza?o[rv~<wStOv|y_`O[w~kz}oSitqy}ax\_?~odUyoxFdhd}~apLTf_[XȓVe~x_qr^qMxTorkurɥl`^ۏi^V{{\[xCfkjkZZ{EzamrNYan`>j|~{qity=jos`{ryijuM\e]N~puzlqqrYWYe_Zk{g[ky\knjidNd{ZioEnztty}\`\lbzznrml×\qqLyaZp{kX0/~s}kl|ki|Oyo?mWijw|vYEy;d{rk]fy~kvPxe|kbIpnBz|nihq{\OSgSuihsrG_o\tvtHo{.We}qLb`vRÄqqop~ackyn[e`eNQkn}Vh`hljmhilhi{[]SCl}bzxZm{Krutq]UnggotUxҾvM\yS}~ZolWzxjrq~}vQBquT\~R{}rSRĬY_WGztus`efs{b{yJɲzve~|mEMzV;d|vav`bfhqcuW|j]]Br}j{^Pk~]l}~rtpOsJ]^jhJkЌwpp@bfu.QBx`n`jhcs{Nv_|zUkxx^{co@wgrljadbqkLu{sXfRwt|e}FgS[q[t'lpcrAZaje]\vtyXg^q}cPDg^i\|tyd¥t:u~yfvҔOQa{yGy~swiqOpSy{ǐi|Wqu~XNzU8utWȄos~lmLwdqa{eu\L}sg}kV_~tpSr_j|ePqeWstu`qYb_^|egqyr~kM^f_^Yhey_j^hr|JxodVmvyrUAAxwL~nt]Jvpd|xu}~bobaogh[^whwstxydokOgLTvot|sX|Jν|{`jz~E`W_m}zxwo}pUo}Rtvd{pHLlsS\]5k|B~V{aIwyK+K~ROwY^YRv_|st{h9xvx~iZ\lYWg\~{pkgyO`gcZZpQtajXSYc{zmuucjKl}b\WGm|J\UT[ƲZWx2Qw_`v\BkZ`^wTzw~WYhnSPq<\j_ĴiiqlhxXY&nwuwpiwujwudv{^uXiQ^easePq<h|pzMlb^pSlc;}\txxr_zm^ug}wpsebearSt>?{+pd[DthwmDvyuxxTz|svflsXV^XS^Ph}|}nfc{i|Lyg{vpXrlTm}aa}|KTwtlfwqzhyj|u}MXluszxkyrnd]oXt_{weyXpa}]zktskfqZrsfc{q}d}qElqfnH׹ttpwU[w\XMRoϗr~cNP֐u]JrswKyxCuKILlgwzmyucy{zFmɌW|QWltSZ:\qyyrXOgFi}y`hzwfnux{ĎvklcVfzFeiIz|xvjm8p}nwvittc~Xhkr\HzVxaXdwxv1rqM6qk{tty]i`Ć{Vuk}cDl`uf|drgYTQY|q1mw[wvj~lFiu~vRU\k^vuuwvMrfxh_mxDjydZvp>|pzs{ovyzhxUUnvtXrm=bj\yx{cuj]Vs`u@iJwzf͗awpsxfodk[{yk~upgvstx|G|x[si_3kt`]_koP_xNgw{Mlmp|?_S^p_|lgNis|rmcv:`dzTwuf}atg>hqrnkyfa{z^kbMutjjhvj|IsR`lLtwhOnixzyalt~Cdcngrb[ZorUgyJPaiW~cO^iwsxb\wFKX|>cnde`qupqv|jvzdvk{mgxxVKh{mvX_j|cevj0kcnRsXak_mlwLur\koeq~eivq@dwshh_{Luqw_}MxzC^ck$WligmdpFc^J?oRo_ues}vUNtX~eclu{@sP]aw^{\1gt]~wgiElPPu/J?hsi~Bwy8uiwixc^Llcyby^jxow}u~jMq_vȟrz\x?q{aXix^iiL}\ik/EdRhoaycblvm}r{u`~\Xj4zbM_VhPwH9v]xrR\rpcmuVvqpxz{WrTj}wxhpyZii\nt]q~=9imc{Ycifr^oo~lp7]~obj~UhTJlre`przuYohdupg^}Zl}OȦt<k}~ximpicsik|lopywR`mou~mg{pPrnW^Iɥa>qrb}oY`[qnvroƤitsmƜovċ_|nlV~Vb{8zKYtuqmeUv}l^EbSg`vOxuPm_ivV{powl~nggjbH[sxk~;fwmyzu<r@hpfW<c~vz}zNxxL~[wna}nezztp]quJjLen}pkSJL^fWwx{oonNebhyH|\vl-CotmdrnX\Qkws^fikxwYys^\k=u^Qwyh{ALbElcdgŕmxeuv|OVRJlxgxLo~~hfdhaVtip5xp-s\{x[|yhpvX_CqUtoiDsx]b}glmٽr}q]llsH|wĊ{iIrLGGlCQxsvrԂtt{Q_B}rYq~pp|XubSO*{XYMgYZY;qXf}kSjkrw]}pcZHeYg|oxw~n|`pwehGjwwvYoy\`[BuӇg\`k[b:r_PvvQZhvwv<hvPnVpovsbq^cR~͵Wtvh}PqE|qfwr^qvdU{zT_jL{vYLUonYTUUql{`eyp\|jdYU{|r[[njpd}seyxm_yvdm|YhSqmfs~~lpmnbRZNm>8.deYhno^XouuBcli\qy(mu|{^prmvcs}syrdVjKƁS\d||t~ppvs_@hyw_DHwro`ssy{r{~pSZKqi~4Sypuu~{Yk9cvyErFXpyQ_hM<|awsQ{kxXrnU}pxKk~f/~xzzulNmy/qa~Tnrs~xтi4h|cpyn#sruvrmZUpjx~^~ɝWyzdT;WӃФtOs[d~_\wah|xG<lOqde?v2^l[l}e~tsXhUqV|eSxqwuv>_Tqz`xdc_un{ffcmaj]nr{Rpk{zcotх]q]oVYkb_eOVQv'sF}r_vl7bq{wteoUlcw^[xw~B`wpmsqpvkbRezy`W]|vayzaar]uχMqTpÇfDOUcsx7huʅOQ{xggliBjrvU~W|r{ZxwrsfFgt~^wtlewCtrwntяw`wGvCz|atL>bowp~]sfu}O}yR\iazwW{TWtsFbr{{X3w~lnv[axh}s|MzsncÊZ7f}zci^|xysHR]lya\gR}Es[e}Qhkdwqr._yfyjpTbktvkXu{s}kgzjrfzhfyn[lWindX]uirtz}dy)^noznz{{wxbNnwrWmtfFn`zsE|K^cOI{rhyoQhi{ysYigeZkzmO}Yu~v}tnm}9=uts^ڝZ,utEA|{g|Sqmz|Z8e~ts|puiknt_ViGxrqcmVODjHxs}}baj1Yt}}yhk}tjtix8TpEeZswo_h̈́]lDvdltp^|yfDqUBto|kR`yphMw|tqiTLnfYiuaEzmyoz{[{rqbTmqf}^`{§qo_hHVRooumksLv\@ti{xa_tw{t_uX~\Ai<nmebZS~Trs[p|bafzW_}xjbZnqfPuNickmtf?pnybWnlXjY|f7kreWL[cfyvz^hXUzg__r|SnxlxRyrkuRuZyQwaY{|~ifV}^zjfdk]sht|}LWvy/}{_`dp~2jdzh|y~s{g[zGsZfp}z`2pzlgOLzI_:RcueT`r}nw^uTL~sW^uqxspPex{za{x<r~Rif}u=pqzxZttrzwso?}[hf~ezwx_dW}LXvi[~{zKezhkOyb}WF]_Qt{on{]otvԨHrUm{uIg~_h_D~f{s]bL߇\r[`S_gGu|t|i㳢c}ց|[rcmb~ib~_9|oiNfv{yVCiJRh_jǎe*hY[JQwbr{}]locApuWtroxAym\{|qO\ӏU{yr_vknugVrPw؋OIzzr`ttpdqfVgRip{exd[R_DQ}z~]lQzy~kWfzn}tuduUtωXoqn]jXnUvawQecilPsdUgs{!q{ap\{vWcv8h|{zOz2t|ywaJz]`V8bjuVgxxpo\GX@dzYb[wPP4vjXgfLcfAjugxk|gmxp}`SLxoxqMvrhHFU;wswwQG?RyQf`q[j{|oSkqWNjOc2uqs}TcKew{h}s<yon_g_U[kqzKsqtav}w]`qNsUmkpbtutxbpXdxZjhPJSqH~Zso{@|p|wKh{ii~|fgmvduherru~ZJlZi|g^S_h{~\oy{h_h]^nz~eRnhem}}xbvb]caNQtof`{vn{^Q|o0r]|tL~[pdIxtm:yhfn?lt|o<_wnpfgN~vʆrv^tuhsp~mxm_wRavzyrxƥ@wyKkeUvxqxsOQmYvVo_z^gMt{w}Gŀğzs~PoKdi${xr]k|}2yeU_Ztrfx]ZxjchEf\bGs]\xʎmlDtwsjk{o|aCp[v^nsjZxPma!ɘu`wn}{~|su~uy`Uq]Q{phmmbpF~D}{u˝mvR]Xt\wGaiuoY:YJv~a^aPkzgTzle^cqqq`^edp}]`f`woN~vjU^lovut\}~uqyXdxxjn6YzK|tSzyy[gLEodymbcmo]zQ^di}tR}Tpu^cwdiXrprx`p_l7uk~m|kqmofneoffxZ}qcnh[twkvw.iitQqUphj}xj9st`pyz]gplalojC~Xhn}eT|[az[ojn>iUwx$}j}bcQens׀}}}wfh{{hhq|[ZupcRn}t`uv^gp{[mpk}zKxvutkny~hmvň:{xj}luvavG?Nzr[vyy`s]fJywbt[sLkNfxLYpdrcu|lcw~OyjxhZwexj{ijxd\YUnq{\_^xn}vʯSêI{xUa\|xuM^qǷNyKul_kjMlyGjoNc~^yef|e]0~rVnNlaQv¢Xamjq~SzqngWdcid+zNrhxVfvmxEv;lrͺfQafme{ucׇricQ<w=fdzjYetr\vloUe]iyRswjeEon}nkTShYfjfjezu}rr}rndgw{xz`vkyxp]sgnlGMCymOx[lm]_~snU}g_r`~sYmcKzcwdnatxPip{Fdhdb~pycqN)yzz_iou{rOv\hb[hfVv~kc@xeOqnkqY_vxswaV}k^NxXpRdSf\JX}dt`c~e`tlcitTkQ_pzzzmQo}jfQEXHyZgqq~{ch~q{Jjqn[o@jOgasncuv^Vt{twTkr>nsHx}kvncW]jlwiZhuufint}zzXC}oϥuSbj˅YsʑlzS`ew|By}y{mf6wiOpRtm|WvxM'Inx`{|ptp}q{Qvzxk<Gw|xyir:m|EOAs\cl[q_kErne͍xɫqmvt~Qq:VtyY\uhn|kvpE{iuNndxpe]ufQ|amcqstPal}nkǙh|ivixztoxjZqkptxVJt*uJegg}]Z}n~J\gnRcjwa|fdmzzwkuUabjDvzŕP[w|lfnrk|^v_uWUWoMwqsmGZuus`F_Q~jy~hej0`w`qpsZPhjhc6eoslp|~~vkނtˠut{_v>}Q~]upXsið|ZaIjK|arSTyxmĨpqt~IiZyOXv[j6h{fVmRr~XZ\whT^D}jcorSfdwyf_zhyq{`pqf>tdĔ+̗KM~mtnzhgPrBy-`TssysW\rnXrj{~~zLMtQXRmtvxipwtxT^VLXsfY~W|Lz~Qu`Kjhqf\l}^mc|sf|wHx3we@}Hji}EfwzDOrWmhhǝ}fmosMXRz\ueyklpKz_{{XrRp|bsq{jw֒ujMiB]kmqsyoŅznu^sv~kDmVh|Olfmxbxbwzfd\s`y?ZSoc}pkyz}~Xq}tn_tE}Jи|n|=O]PlmrfZW[|^WZLjxpKsl{azxorrk_~g`n=q|^zs~{wLE(]qepieje{kZ]ZyxbstŨ^]iysy|@MYa_tsPxjp\Xsvsphxog|ndo=rf̜jaBX_\+Mfb{9pOtiwy}rl¿[}o{i|zQZg~uiDk~ϤviYs\WYvOKe{\R{p}pǃa`SPZ~l|>ndy}Vh{gëxsmb|;J[nd/kOrdmqXom~avgdkQdeziG_d|vjY6Pyr~sQmԔmh|Ulf|qzyScm^\KQqy|u|urlNbguzK{_:x}z|nSlppFaX2^|E]sWrykaWhgozWufGY_{wRxg{8lǱhnrrx{T^|P~{QzseZksdWncwtxd^uyWp~T{Dt^wy~L^]tvzbQ~Ixm|kxqn}fz~Tpwz^b>}hY]_blWG`Tsv|~w}|}{|Ue}otz`n||~Hr_c;MUah}|}y_{rPc}Skg[ZnRčxuSDwvek7s|qr}rf_XxI`MwPps}dVo}c}xluZswfbczauxágaEo]Of8SUZiCY^locspYn]ji_||~cmmrZu\|_dkLR}zatʉgoflpqb\\qzs{efx`wh\xxOxfUnwl_w`kdwUxkjg|sJqbaahcwzxRy}PknwAlG{|r~}svpceTxzhpkOYvuHmyEv~mMKqtGbxfo}dQZfr|{Sd=uuv]Pp\}Utm{zrrm[\n|khdvZvvy\qwGVmgknT_V\]e}fo|s\el{[|tg~og]Psc~z_Bwnj_{pX]izyu[qhuisIxeBp^}|ql`z~~fLtRwjwAtqZwiVn{~jN\fk[yyPMeUcS}Zp~ZOnv[gJwWJwty~QUgƖ|au}oRqEf>bw{x`jlkh{vcnfȂWa^io[5pkt{Uk}i_uo`vZNyesSjxeyIAkvz<yhdrPhmwŘfVlzyoxpqkd]u:hsrYvp5{{bylOuk{\Mi\tqUls{yGykTyx{a->jqpskt~~uzI}J~|tqZyat\fqS}wwT%Or~mup{vuywrn{pg]NhTd7d\_aQdntP{myyxcxrfU{unmc|ou__@n[í5aayy|m^|Ll{dOx|jhal?}N]m`~tHshvnj]:ztscz~k~sXwY|xc|tHyZs}P|^kMbaPYce|^Z{llxu~yobwCoVydhvNbisol`tiurUn}ʈxqqm{fy_KcVZ\zRy[wyp{}f~\ShwVaoNX~wp?TZZ]Zmr\~Hnyx<AFyskYmvo_ecij|isLV|ZqU{OuL@lrMsdq]Otzg>~OqVx|V`niUn{vnkhYxxfOHz7N(Tt}bL]rgkZ]VGW{q}vncolyyrMYřyth~vdtXs~S|vrzy~wse}m{Py[lyHgk:aye]jWxLyTk_zzlQVb\Hg^uhn~yqpqu_fYo\6{hP]W}tIsXrbWmp}rzgkkVO}cE{SwruZS;\|pxso|lYknMlsoIfmxaPn~O_`ZVpm?aRMX]r{d_nwlyMeoa]sju[nmnuX]N|oew]])}WMaaWTdhx{kEw:Vv[~cdzb|lSpvytctqqha}yUqlYxd}ub|Rx;Ifs]WHd~m\kopikUihlSt}a{php^0p{@zNČhUty`RsbVmlXoS\T}mtqdkTfr_vxx~}q|~\ZhlŕXzePwdE@[}|kg|~ww~guv_ihivvIvr|t]fnnMhd~ll^t}u~rVoi~cmc[$mZ`6u;nod{swe~axr^i4krpsaofqvlr{ÜPӟatov窣~tBty?~\`p|Pdтhvnv^loil|nSXxdpxUied|NjKabpafQrshzur`mb|j\^k7~ElqzDwn@zgrwTm^xDKwyh[fU5lNwu{rU{m]>pShuM`gdUljteZxRizp|ietiu|mkvrh_^lQVw[d[xX\m|Qyot{lTgzm}llաout\fhGzdIX|?Iges~>maP_oF{f|jkrfnysajlyfrs_sUzs*zdtoZo~Aiz:c\{qrhy~lsh{u@pLlbҔ\yioWSypYoZ^movshKFpRw0qxLqqx^bXdNunruipfxuwl}~}|oJqZȅkg}|Ʉ_ZQqffapezbcay7T_@vU}{yo^{vsQMOmz}unZuyt2kQgkoKb^{kgpxvoZRWpV̐bxvV[5m}g_kf^]qbsNRloJvoy{p[|Γxn}XwuSY<H~Rqpevsavbsuo^mn~krV|uuhoPgZ|an{{WM~m}Y~AnLEd]Vjyw`{j^IsxznfxryΩgUuqmv{}`}{X{_}L]{tlFZ]YiyKTg>coYn0pnXV4~vNp}x3u\ҕstl@Hiiw^R<j}l}hspn{klB\lkgYu\Wz}zT}kgVYCii}}{EwObx|0?k`d~KT]GZ}}zbWj|espVxomi|z[Qju~xvg|}dtjZ~b`Y|x}BQ&wba_iVlI]g<kx|lu^AK]~:qOeZYm8y[Xcc~{?LșYcBGTRW^}YyJw]r|crn|xrD\wfm_bY~`[jlxslv`poWGcviLz<zQ}3[sLmwjmcl`LpȞ~SrX~]xtHQ[x*zt\imoV}Q4tA[{bt¸Vae}pns]^J{v[|nyo~yfx[lxta|ilh}elSz|WobZկˆUTqEp3`x|e~qta|[~zvtno~c~Yxtɉ\St{b~|bkv{~[V\xfsia}V]ΐuxru^ty_wfnLS|zsvUkk`p}edwRpsZs`xz{Ko>zRT`SgDjq\zuysvqVpMelg}vriyvd_paqr\imW`n[kk}Qa{zzsktirQc/lui}қnsLzrVw}6`fN}Omph{Cqm|_yrwkNqod_x|kHf7nkzvmg|]yiufov~]rl[=[Mj˛hlhZp|8\yhaƶrqy`n<ҝIkudqxtkeyruuS\/ÈfxM_mz[NsuNYup[f`}wvYaw~5^"acChwteN>tupzgg_|t6bRpc`>ix`|TbzJ\gH}vs}]vczt^iam[jtSIEEx}s~~|u:GŎvPrKcT[zxRxfjUwSrz_iݝcnpd;/cg)qr[p|rQ|p}ar~WnwamqzFejfK~WkmotgbDk~gx\|k2n}[zrrm|hzz3VxHvqnsoMXezcGw@oa{~`fcl^~]ySbmi^Sw>kMku{c}ufl}P|ywfc~wFtzkoeebg`udP|gTifznkia~^EUInd^gbot}mgviU_rKlnxVu`GllxB{D|wÓrJk~u|QyedczOT^Pz69]LZg|Dlh;pc{\[h_tOqfh^w`Azzucɍdwmh;]EUxik}j[ofpSZ\U\^i[mpyW}x~~[ycRБfoz[qwjmxp{q|uvjjcZYupwuAdykkv|u{wxywysb̏ězik|RneVbau\U;~~MW~Q]lQQu_qiwUh}oPcx}lrjySt`qwrYbbwpQwsXp\jxfRwkXܱRf]ʈowdgkXHi`{|zSze{p=}i}Ndfd~Q0{igxkhEmRd~k{wkr}sSnj~{ky}evMgpx~vGag~tdf}|TYRlvjNyq`٨txzr@RKmilvd{=W]zuzy~Pxea<v|}zbfmpzJu]}}znwl~_iw.etpx-{TI]{FybtLiVmoiuzwhbIwdnge0{qRutx~Z}xŗzZ[fqtnrz|[(LjzIlmn{jYoSl2\]rq{}d[{g~ImmjW{jtQbf}eknVo~iglskpfvbqkd|e\z~z^fzaed{l|csK2pRjoz~L}twmmjdwlr=fo>qX{_\ewc~xzBzlqpy|RycjtPnNkj_tRitzvqjt^y;enVR|wYxzWcjs{T}rmQ~<_;?nrn{rkn9zGuxXVvxsoHGWoqG9Wgg~of~O_q_rt]nY^bjpdi_l\{ziwiQbz}n|`cfSq6cgyfrcvчjklt}|fTvo_XLoLycMItRZ¥dgfzi}]~gsp}pkdYoejTtp{NKy~jvSkztu{itx{jlSerhevtKzgovge\wes[[ajkhZ~lvqGu|EwrejjE|JDpPvjd|}|unjseOyg|ăhcXP~zZhG3Nsaybvbykt|pƟWh{S`~_ndeUlwouy5kfwfRuZ_ppm|qrhxyKvTk>rr7QxdL^mu~MlgwscPzcwb_~UnI]\x_vG{X|}ssnW3OmX?iyQz[j{gGpyd~q{W[mDfXmtpy~h~Vp|^d/uskOjVquVl]qetbt^otQsmĥayÃPruoZC_MyzZ^|tQ{z`RcxnfWhaɛXxf9zd~Qm\|yVErAlb}TjrpUQym|e[Muxtp^lF@2M{z~~}x׏bvF~y$dfOLeo_egTrfxtQ{_]curktmt^]~y[geh^Nrw_ryRtre{v}tc~X}DVM)Uye1yj|x{~^Zk{erv~msl{onC`owvm_|fkviqi;g~~5xxxxn|vj{jpno>GvQ}uYr|olMo}Utktvrw]s8vlabwnNRUower8c}D̛QOnrvgUMVPt~:BTҀkgnc_b[XZvV`xpua_i}gifd||Z}kjąm|yS~SEv`r}locaqIwixv}ôrVL]9wp~m]l~nsYIi[B_ub_fhSeWPl{jr_xkMngWxujv}odsp|^}[kPwWsEUex_[yerygxvnntlxk|}K}PzQhtpuLpurqrwrtOYf~a`QTpdmjz}jigkssV3Nl~g|qyaE?JXThk`TSbtmvQkysBuzl_bft~xK}~zb_rZgdT|]{l~-rOReU~tu^TKupoyjKq\TzimwifgyxhkdWnmR[[wUwll_au`tfM{`owX{pl}fT^[n`eZO~rbsa{~fztvIinomnj^t{.ubwa[u\Hbl_v}{]Ltwf,oXb|S{?}|uRktqYnbJyiricx~UhY~yQ_%DogtQd}hQAH~i]QlzulcNS3wql$i|YjifXufkjwootZodgi{mvl[eXbWqgabf}vW}mm:q`_gL6kGiUdoDvwWjgeQTzuws>g`_zQnuuwhZpY`uahN{9Gjn~ZrXvvuUczpUxnrW^}dyb?bziap^xqYrniOS:TmusjdNkl{`4QvajOeznu{mR7pl9^h|4\geL~^L~jmt[iZzqEQieYZZu`yAmrdhe~lwhibvzu*zv`rhIao!Z}ajxul`cugˑ}_t}sIn}nKgvKr~b{W|{pM}VifWilzxXqxm}aTtxkPSvNrax_v}nY]ge}KwgIomQj]cptqmoa}tGqkUnyby{yƒCyLXGwmRTep3ld{lNw^now~mdvfUZuTk_>^sy\G@{xgKr{W^}vrءy/jVjz}n[cQq`Vpnm9dlĂZvr`Xx@|plPwer`g_{~d~uzbSlfyzeu`luft]jqwe˼jtwn]znrmmJvtgJnkkT;pa}KrnemZfc~ưhctwY{i\zuqQZkhqvoB|v`y4emazEw~op~bXdPj{yxLzoplxZzQ{ox_fdvtKi{ww_AuPcwG|n_+_{bm\]eu}zx\dQxbogp~aantVhbmrdzu|qSqghxXmwmx{ȩIfPec}bquaffpu>zzYKnctvL[ytno|Zfwd|d_r|U~Ȗ~Ytunyjiz>[kom|gyf}Wtw[q_kd5SrxTWmlreȧyYqqfc~uvrNQuwvqN?eYkD{~|VTr1faxm_X{[RmfƤreyZwrKW}y~f}=e{w{dX^tg]Tkxj?Zb{<P|I|wInwnנkOngx|a4Rbwypdp1i{skozmxa͉GZ~`|V\AuVCxp_t{lgrjtx\i_tTixsmrxz\Xq]\}xv1Xwqgztsx[nsyfTp]dqTc˖SGhzk]bqYxRSfqe<D_cTy[qk|oP{v|zb~VÇ@ϚygSxDaʬl~tpxUvsnyz߃kpZSWDhtsqJsmKyexm_}Q[Y^d~fyyzn{NbKeyUj~ykXmY{\]v}xVuhtFhy=sttf}|~lZuarƬcaa:}fmb^nn}l^zK`[rPe``tylmvm`aIwvp^rxwqY~wpY`ZUnbdF|K`KKoaikN2MC^wXcYnurd7uzu\{g{aibxpps~jz^tarakgvtmXhr~U:XaltǣdSxad}Q<wix͞iw`vOxeWR^Hi_zQs^gnl^Ia]nvQUE[chQn}umL}envqKS/tlUkn]klkkzytRio}n-qZzzlGY\zJahxu}oReAriuՃv{T{SrrfuGf?pvrBtiWSq^gbaNtr{lixoxdYw;wWwjq^pW{f~fnqN`ZN`Xidbd[L]\zlx~vraCoLgkze~pcnt?XX}cq{VBFr VbVwK|_{og`p`[t_ATcypqs]wt{x~}V\uo~{mCnnuWaxe\z|zx>EbJbwPgÐGXTSXhcdeOuWf^eyvcDiylqethkz=kU\ztc\kVyZC~]RiXusYunFTw~RkesKpr{wVZ~_cvigmUo]ibdpaj^wlpoKpwmxk}z{P{Qxr}ox^~YrwP~{dQP_xt|e_N}~|S~`_c[Nlhdː~YtjqmfpIvIhg)yxf]omn|qotluS_My|dX2Qavp~cK\VxWiy~ovEEqk|͑u=pgGx~j^s\|U}\|}w@uiqba}R}asxq |~LqZ{fz=Q>vF}[f:sqqw}|{wt{uv^Vu;}ÑxlhzZPr}OŧertQ|a`alGchzgu7rp_b=mWL}]WxkpoϖnmuOwqjcoafqW`cjx_ٛfrunʊhUVdxģ_f;sVOwobgEynmv~\^`fpkttdtZr]u}ZQrcigI{sy^_vVAhnpq{gimUM~QnxvZnnz\qsei?P{^vTjM|gh}LbNjclkjdtcRlV]iQjWww`x\vv֊VzuqnTufJ|}spmfsNO~tZQZ~phpfxiT`|ppv|fYÕaghsQX};]{vO_NqzcpvvXsȅar]]hzgwkcHiPedsvw`Ltz}sovӔxpazhg}nXn{|Ph@gsgir|cmrfsggQWx=titym;S|JwvepPiI|xfgeYlrT{amXWMcy~VgI6`ŃXql_J=g`UؘPpqzsKgog_TăIktuVl}zik}gX^xsÚ}YzCeJgibkwZphjiwesev{o<lRjf~uvA|խ[}cT{qzwhNpYr}i\twn]^cr|d~rWZY{uinwobSbgteveiyˁXkN\yqh^yfSv~~~rx}wpFwEz]>ozOeli~[B|k5ysMs\fydpjN[myksDL^Xb_xrvWxTbdwuoؠ~alroctX]>y[Z?~uoNpuRxeurxiά|FjyŘgaypueg~moyt^~nx{ÄmdBuwgry]S51`s}v]sn[n}d\[(myKPmZu\vjk]mxZrN\gVnty֞ywNtol]ǳԆaltinprlwaMCLUVs2b@Tn~gUwSna7guˋqQgԑ~њ|evdujKdK}Zi]|tclv|~Ku&xJkX[}Gqdspxmmw|_q>T~f{_i|?vXnykuTujdjvOP^mNhOhxz{|w9igzl|{fldSo`osN}mDpkPjk|neDXkf}e_fpii|}Tzx~M}{|KqumyZt^Er{Urg}bxfvwk|U}OVZxtY]wW؄sQuDsSlsVioh|U`slUUgnutfvzyK{|fq}yn\hgshw{mruwZaZXjFo~\_}oq}wT^mƖs~uYlwrP}wsqmilhXNaR^S\mwgtzZlm~HtetaܛScqXfbmwy}{bJ.znxbQ-fxqc_fwlXkpkn}pb`tJzmYFg`p9Hc_Exgv`T|LgyɥKs}ctyhrzpp`ylewSv4H}sv}rrnRZkzn`Jpuub[oscn\bRy]$Fyvfxlgxk_jxubz~\tlzs~{{{h]A~s}Jlw\CfRkU[}f4mbasdzbsqkdye>}qq~dqgt{q_Uup_O~OUMthozǝepʤlYC{tm]ofy0lMGod]gaAiOo{Xagn|VPW_ʗInOrrn{oxgbvKSuIM]xoSbpyWdΕubxBW:Lo}p[fg[Ro||vxp}jycESY|d}vxzixulIpsRkGwwqbruhny_fhw~vrosbmhwSf|x{lvhnW^}~j|luq~Vi^|Ԣ͡lyFZ7j{mX~oamkbg|b}w`yizgpl\cj{zpqx[opw~$aY~ePWxyasyv<b~xvsO~rvxsuOxoVpAmg|ruq|ux{w|g~r<qSc{lwuksvu{vf|ldMrdbNi~rOnfgZE}omKxuxygoix7\W{+vvkpae};ujztw`|[wh}ygb{Vc}lZwpvn~RJf|PMZ^n}[QSpQoJLRdtCsrRSYwmo@`kr}NSfz͓ututxRxdwdi\{yT]hte|na8{m_h|Xvvi~[sd~idjocs=^oT|nhm~/q_nx[osZY}mZ`eYxxxbxbty{Fgr^h.\wQ;iYItMh^LwS~rv8ehOdiRTrb_aTgun`tycfwbSlVix^y_k?umvvg|rxMtw|^drT\Ufe[w{~Z|Yh]{ua|dbPoXofenut}wofTdtpyAge~zXpkdHxmvIm~>u^ʯ<~;qgp`AtwybTy}ghejuxnrbZyfzZoo{2gUfh|kbmjrf~Wu|oEh\BMuoY{ȍNYa|fixNvVmnpz]Xyrbw~`mE{~c_\nroj`di}}Kvjmzj]nwoI/cb|\WTXdj^qjruukYƐS?_xxT|xtV>o}oTmViw`nGfqN|kHkdZmfN`Vzv~Ժ/oyBeĮhw^|lkhn~fk;~k0xd|s?d[b~Xxkx~li3]]ϊN|twu@wbcD|xmnqaTc?(a|v`IZutwzVUw}KetdmYkfD`gbXUvwEi^HG~qYhdh`jis||}pˋrtfz/WzU:rS{bGCTxeEop~NW|{nhZxtr]\ynV_JXp|JwU||-tjf\xw_XewqHsTheyYhB^ifop5r=vF1^Ys|an~oQ6}|gDV^^plQvinyWlP|p&:m:k_fhxs}ebjf~veiOzaYNupx^~{jks~}ib|^~}*]p}ovr~RxVk{CejZkKt}CoqQVlimpXhwnxZrgoqo_|G\uuImzib{z@lb~|~^htK_`0]u}gUKek}hsbzjflhxaHXyxHmzVknmnahdVNPiiFkyQpo_jWpVg7gkmzyƷw|u}e_~u{kei~|cNo}^KYkz>lahypQ|vqxrybXtxC-migsj]~xkpkl\UzcwqhbqFz^Wo~ZkmPzgkS|bX^fl~uRn{NnQk]vKfCwcrz릃hTpƕT}Mh"Ngquz{QqvuHMwp`f^rwsmvcwyk[ltoYZq`IaOlUn{xgl[~o҈__eVng[t^x}nZnwLRadncf}ymxutkrNckR_ty]Ɗ^Rssevg{pwe|e^|}thZfw~wsNWGlhrCsnoJySg~uwHwg>uOukoqNqozenҀzczw^^\foptyY`[՛PuVtDwiNe}nl8cr}UVqwrLhh]b}h?sK\u\ĆsPxWzpaWoaqnt~jsY\|wimZfl|a[dhy~^fx{JrdҼtgtghqʗ~|>H]tp[\oq{fώjlhyQpőszizsBjuNm_Y]{[ye{ikhqzfohzYu^`gfk\;ɱElgdfmtZwnt:̩^]=^GeltzZ}Xj`Vthz@ervUKugMg~}vmzvvnX^w}\Vfzbv{zf|lswWys`_t~hcqgknzjw_ac{H[w~^~^q~MynpGJmsswtrxnzuCUzzwUqwxrq9`mgzz{DYvsZ~:}ukzcqPw_oyuw{F_IW`CbO7ormYbzcqu]f~]\k_ygyX;ybitlQWoxƐb~hvgvMy}yuDi`_}xwVl}ZBvx|rQ#ry]ezlvV~icyY]^Bots}ikoutogxewyS|^{dikQvnZX}wpDjiuv|MHUxmOuXsJ`jvphrrh]{rhaus|u}Xxi|OWydfw|pفPswz|ium|Jc~\{}FRLhH;or~~xH||A`_e}|fUqGxb}Lr}W}ucixv{Kwlo4i}ZXTvm7|hsZU]}qfnz¢Ahelkl{guYJDlRUvzzawf.\Qc|^zzWDoJȉZevk8Ka~ioxkS|fp^s}~l_sli][sjn]{luurww~s.j{Yqin~NXvcb~~saYROyWrrapwkovfanzx[L?{Hϔzg&uuas>uFfewp}DxUq|Px{rlZgNrą?ms]v~ukXpcq{{Qykk\oVsoskqn^n]jtqJk}N\u\xrLw[inNV|HZxbylqȨo]e[jHxbhtPLgt~vyrobgwƄqHK~C|^ttrqS{sfhqrD]lwbxuiiXLx~a~si~ÊkYoc\jxVnpng{wVtd{tm_f{sm_0wAo}^vSnd{xb\{`&tBzzG}ubq{pEcLc\|hqt|fao[wl\yys]8qqbjLNPvxnrUiivOn~w[|flo{pzzMbUr_qpO|vj-djuurUx}RScyvYohkk]fnzrlgrw3a`}Ykol}iLpJWZ{wm9ql\uvyrndȐcKlVpDmqynzh~KVcxd`kIkhpYcnvv~pwGvz`mujt=LƓa[zf[gsz{x|-}gY^YąOYjk?{lXjia8n|Uj|wW@^vk}]WburR~YmqiYVYi\yMv|kzdeSuO^Q\~z{cjNsv[Y{aymsi~v[eh{D`oeǗcdl]v_aPɏ\F}_VGOs]wjz~srfovEyDJYGXuq`hmtCkB|Y~clr[}hyrzp[uIlobzL|PYdnwsy}ly}Ymlj~lSXls}ryJj`lijnR~nKxdzvhsX^hg}{{}Gzrpr}Zi}?W}[aSCwy>xwgle{|SŌ(hgcnRo6dpygcmtb\lntLpP@wzclY`kx^gnJUufSz}1p|mF@\~YLvinc}I~rysx\0AWtozaCxxzesw5ptyvyuTs}sbnVnw|JjIus}ogtrq|vjuCutsx*|Wku`x`JvfrOO|`op}sj~pd=kcu(caRw~iF]{i{_xi֙axgzotz}ytslLP|Dq}q`bk}wmД{VUh|fmlSz~vBq}mtXzw^q5|A^mm͋4a|qabfjmw^ivqmxpzyg`oQYiHpnS}bwo^|gjUfltwJm|?wakEycxE~kiUblI:t[H\w^cm\˒dki\~qTvatR_HiKTnws^2yR@~ez?_d`|kW|S~R~sLtq|hR~w@stuicyo_Wc{fQz{zjaql\wkoDuzroYbr[_cpxg^rq,WR_YncdTm|spdxvV`;[keitq:j]n~krlP|vzHyRr^e%Fchzj}q}Xq`zSt~znpeglAFty9jgO}Po{goiH~jvjX{~ksřzi{{sntpsqwvu~xyxruiSXjFjvnu[kvwz[q}{WPtZlu}_eysr]Tu~Se}tRuQG~ntcl^z|yuj}p|iz}V\סmkɎ|y\}u~qeX{c{1de{bXVDTnsI{JvUwxyŞx2dzurmw͌;{|gpVmbfW\zbedmbV\`uvG{;qwMlh}[uhݠrQkdn}qGd&myur}t|k]fhņf/Uj[xrmnw2}rKE}fmb`QuRcX<xYjzqyioedyww{]KyX{st::_trwu_~gsZ_{i{hatowaq{Zvoq\{oabi_Φ@\vrQZ]y``if`Vn}szhmz~~I~nL{X`t?yxHPiP\R}}m`bgj\~zosybl|poNbdpU`Gvri|cW^ahecn}p}s~t|Wvochz^um}{Rot5Y~TxWX~ro{pn&yWy_|ozYjj|D`^MznunKZ|Q_sRnsbEfspgemkpr\rWMOcnm]Ot_}rLb]>b_=~W/ZylM|gfv>o~@AwLxd\mdy|wexokas]bxkoi}gUcgy[Joef̢Zf[elw_Vy~|]x}}cjWhzpptf{iTh]dpRP°^gY\xhffOfFy}VvyȜZtez:F|yauNway_hxqmxl:nQxtgufJgof&yPtd~v{}h~T{xs~obDwkH{q`ov|~~k~a~N}fij<v`cphtptzyM}~nodzoc^Zx}~cbx}}STi\~EqjHkslcmf^gLp~hoadXr}£C`gQSǟn?i{}o`YbaMTo[ksb~x;~Wjs`wvnyz5v]Fx|Џr|{%yQ|OyU_oqa`nojesanLrKxCttOhĈg7s[J|`I^|~|oB~Vm^bmXx|pG~:jssii`wi]M3djUcZ"Yg~cshxrVkp<trzE|ArzhjPqily|b~rvhZssjNBG^p{e{jxUi~brvju}rBxHhBFۨjAYj}jn^s~aUows_hbzqP|nxxzhcTk~~V}stPijfM`rzqEZ5kY~bz`{]wm|oRt~u{Lx;OzWl&I'jyzlqf~P]ZxU_Uuayps~rexaZb`uwe\sVHvjnK,tpjw5evmQZr}Ldmjنww]miLUsj=J>x|MsxdNJrrTDkKifqiyz\r\PwuYzDyPTN^s[~\rL}mjZdo{cl`jpgmxpExoShۉiwrodF~{x\~wrsx^~gioscZ3<koJ;~qc]lrvnm`|wuyMFqrsxXWohjvetrǀ{OcthkoPVtjh_f̐akr_ttsx9qP^՞~tkzZxpy[8|ogYYqhhliptnZwm_}T{`fha`cEcY[xsnop8dy~}y+wb{rƁ{{uvpmZ`nvSiikW@pTtiS[Oil|j{cNr}\s^uuqwR\p~}(Gbk}nڝRip}t_zct;~t_[}u~kv}lyQ{6UmzusUv|;Ulrgo|rbWzs]kx~V|v}iR}df^IkdiXSq]TtGXDkvwJxz{zgwnFsҍYehctv=ge|Mvrr{S]zic`L{~Yi|m}Wgp_jvwleU\`^zz[tiwy>_}tsvszjU\psVtp~gtUyfhnw\2umÐec{bYm{mqlznxuk{Lp|qTb|]|j^{Pbu}kbZljyhwzpzhYdt_bUFQnMaV\lt{mz}fz\ladnezȌywUzwuJY~txEiB[ãlT!vǦlqT{tkbhroiKeEvosMioh\||wlchCjPZ}\wqKdlcx|ZnkByht|n\q8v\w~vunmdUmѤ\pcvcIqYZTcyk|ch{rwszh_}ؑu\cDf~`[`vy{hj̍y{vo@|p}XjJrEtZiVlj_LCnwwC_[kfztJ[n]x~`z\l`ČlQoyq}ZyI~Ld|A\WwsiUsibvsu}XxZh|OztyuidburokIPUwexobbwa{UTjKcDVubdey_qqLmmz[vhed`R|g]fextsevYt{Mbwo_gfI^rcT~T[`yyډXx`uBavqm|sY{}~i_@߅\zynSfwxcO^2i8{|rZXeZvSwwyMvk[wZVnxymp~x|~aEih~ctmn~O{yorIkqyrw5|wu_mjx:H_~ak{yurl]rsvjKulyR[xrƉ|:mièkS~gcȐ^ym@s_u(nXilr{]f}`j[uq~D1qkVyr}6quffpetywYx"gWzNPEDҊ\i{|v_u`x0FxXaw^`FbWpqtd_Dnu~~ihvRrMkozfNjxfdrEo\enp`Z;iɄk~qouqp[hszpkQyahVPn~tWnmzovfcux{zJa]CyuwynHxes}^mx~{[Qi{[O~w]ejbry[P`[R`b{Ok7qawmZxrqzk@Ƥuq{||W[rq\hUw[wrgilcvr,yGYuva[stV+y?jyvn\l]RgumMnЬIgmx}DSzvw_`wxr|k}tvmpjwvHgw{Le_Hapozyy|{juT䝟ITVjOtJNwb2r~k[^_se~Xnw}|}rRvkqqYioz|q]Xzt{}IdgmSnedtTsp_ux^rhlXmhq`j}nzauz}G8wxnYyŗjuE+CxmyQ\trWkd}w_jbr{uczyB\Mpyyq_j|8Ncm g]z~j<ɏbxo||q|jRc[hAsir96x(XXebpB~g}rqttu{N]Q}q|eqEnoves|ymDzz]{{Nnrq.o`{l|[Px}{~jYqrk[[qu|/vWNwPuRXGpvhf_~Nrt}itwdtso]gzTrozLgiwjruhzqi`]za|_XXihvdTop}}~u_twwevjuEkwsgi~}giewX^N}RL~=w_{|zf~iYwnV~V;pzR}wbyH\y|ur\qpPraT~\fulLbVvjl[jig[`D|M^5sc`yxdBebfwY}P]c_Qlfp|~gbyr_1Żth\qhbYO]UłigY`bju}wrYtp|:Zu_\}ed|}u;v[vfzd{F{~{dTf`^DzjwwTDÆgcc\rF\hst}lqretn_Ah]{gBz_b6lmRvce}bFxytRrympdptRteK{_mO^ctqywxvcrrSuq|xsRewZd{mTpS6[v[}oh߿ppbnQjbW^ouf9vqcfƁyJnoF+qoWVdOhonZ{ZnItmpybihu^zxphGreaxs^]Jnc{wb_hxmNA`jzuoRv|ty~5UKXT_YH`{\oLbiadxN}v~seyt`q_~iko\zzi_gZnɏm&]'lyGc|zq}njxʁ_tjbp}EiYaW+uEH~t}ILMMf|wvToy|~Z~vzHXzmM~lCnO{Yt}tOpwRvtmovWeuwZa[jXrzpV]t\vxv{Vdx;aZubY`}Cv^eWPsby}qqybT|oKtaYMt|cpyYb]g[ojSmqY_gSraNh\f^nufstaS\qq]ho`}h|{ki^`_h͛epe`@d`{IPrW|QYpr;vdOrhbyruzltq}i}ƈnǜpmwilsPm{Ba]}q^h|\azAvfRf|Yd}syZ΋Wgkez[T|{wŉhy|ouNtA*sOaZOѾtjskyΝppsjnFWvjrsẆrvc_|D\dYmi}z~C\~xXqoONbv|Ox|Ro5bhwq{sd:]}yDurxXrrЄ|o~Ey^Pfy^kuUw{Sl~{cZbtubi͐~wk_hWGaMYpsb_eم|rKquwK@~zxairJzv]8|fqx}|[m\shSX23>kkxZdvnNilfyxtZc{ϖX\x}~xz\c}lq}WQhv^~rqlajdh^NwfzqxooQLBSuhg̋~]u|[v}d`iT\Jzphy|cjY{b`{u^̌gUP{§Ř^q^y&tZuejexrXQvSiqai`jov}qvylmva~gr^Sojxg_wmW~libfultUsbylos~yw`}xiBJQwxvlysoy^`s^^N}|@{zrjMb|TyqYdj|Rs7tbrqgltYig|\di}0kbzq{NxcP{vrKX~zMi0lBwyvuj{wpj]mujm_WyZdughrIjv2Khu|k{i^[R?dQ\dHRdGfycfriUcuhz^xqDMRhmjAk9hml8tavQt{mjalqcauwZo`JrakjqmtreAN|mipsd{{ɋYliqiQv?XKYZxLxtIv[xuZSi{<l͆oNewsfCx{f\zhc{dnZņpWR~izL}P;s{|NONoXfwj}CZŃ,l)l]jtYhn}hN||oOYXAzǨ0l?lpcnpMv7hSpszjc*XfNqSyxv{Ghd_xsk^|dOKhk΄]V[wZf}Ęk{UtvYdXvCo_Vgt[1ue[hZa4oq]VVLwxm~w{mIMn]UqjTnxard{|agēK|Tfw~umW^uy~o~ǮpdpzmbZ\gcz_vsQGq6kyv_[m7`\ެpkKMzlOxo}pxZr=fXe<r~tnhuRZxn^ǡso]jUl{xcp|ZVU{xynnZ|y{d}@Wd_Jl}rzJ`_VozHr[~{mf}r}mr|mw~^QnRxjpqkldwsgcC_mZihn]hP{aktdY|YL{tPt]w{tbF|_gLg)vEm`d{yMrumdD_i{~wxKv^pUV]Ɛpji}vmmzuBl}qD{CMfYe]wwT9k^jqsgI[lcOlpFK}cc{K`j^xz>iyĆiocumje\cX{bXڌCQ!~KM{mMss}{QxXKa~~IttVnVm<XzgNjmgreim3YNdwFNbq{w~8u|uw^Wj[pTau^X]ooazz~y_sX{dwkzYk||xWyhuy{kusqhBzSjvvŎnxh{[WrldeHW|f<ja`}hikd}_}jwAʄqk}poOorq\awoS[q|:zxwqkl~+VQlTcgD]Uu}u{ynyO}wl9_u~\<wly||p{`papsUdtqkZiesskqcj\[tknga9t{ntvxzp}Xf~Pq7mliTu^p}uoo}GjnKwysbhhu~pmPz{lptpkawqwyu{lp~pwgl 0-pxz\at_m=SRIWPjal_nvO9eyz~fPAlZZc6bs`eővnpGa}ՊXootäwVqFgnu}T{p^fRcV_eQ[yzvyidujjàmk7}_yvXrvHvkjUCNbzhO~dvG~{thi\YBspUunwmvtYOee2}vwgsrilLUg[]VXB5sd}w>|}E}suw`u]iToz[o>RZ{h{Q_uc]^smmgflWkOit~|md}hwx~NijiTtmTVEz`h|ujhQt}kDtM]PkHqUvr{hhj3Z|w`aud{n~dtWUgPPtqihdQtF~mxf`c}laupwdz0sbdeVT_owA{SO~ޣnjx]]v[yu\s`Theg~f{duqXK}t^reÆoT{R~bcHa~XT{mYFcy{`oLxqp}c{wNhj~]khyf8]hwd_[{yovxRmvtQfP}s~{zEmjzYNTiaL`l[fdtrlktpGrxztQ|u|sq}xr~gvc[eh~s|ksǴlzgxDhodvytuhρh]XlvtArxl{=]`rms^J4gXyqTocXxnms|eomx\TzgFyxyX`{sryjZtzXqnvrtj'dgɇxVpǳtUu}tzviu|~b]_}uΝCzblS{og{z}{tw~{w^~K~sQ|qxrw[TH{yugf\Voc~ĎcW|Y{aXkc{glsPuj}azHYnDZ[l~}_qwe`y~]roArSSzcA[rpsbAs=y?mu{olZcgtM_cp|XryRjZ{0mAP{d`d9hAqq_nlk}uyuUSHjoxJ^}mudWb}zLqaP2zVjlq2@~glyWD}olXzznwtuvnx~fm{tZdzs_ksje|p|PR~^Gf]\vf?dwuu9Ǒ^~nv}\?~{}iD~z\_:lvqlf{Lsh||sOvxcW}f{IQtahM}zssKTibeeYum|QWW}zZpi{^P[iZfhdu^o|nuuyavqrmniqx{k}auywmuXchdBllp_~WbPgm9{yV}`ortI3>Tc}nXTqitoozPVR|_bh\P}erasww_M~IP&v`emWT{tryVx~|xngnl4v|wrvfseRexZ\A~kqlXcgl|kv|\GXxhjKs{pgv{K}Vrag\yrdt^txdVvzg[LOrwxpPAsCwgo{zhTdj{Y{w|Rm~kWJEZq9vgĐٖ'8q~yr`m~cx|up|VcxyxpzeVizvk~{srw_y~m]J|pdnvSYVcihw|jwvGq{f~lShjqXPjjmi[UolvլvR{zϴݛ[ECwhgp_^wnLzm0sxguyp`xaifzpe\W|vkumL`xZzdp^oz=}lrrvTzsf]Vv|^m|QmXbpbzi[~yns?s\atowxUN:}tOte{hSb`povw_opc^n{rvYx}hh>OwcplcwtLzjtȢvat[чjrWSXjSuHfO`onbZl~yq}xh}]rpjlzLKeIpzsGtQW2t}tNP|lUTZu`km|b[mz]|]ys}dLh}gVb[zmcvn`m{x^[gfb|yY}^vǏos~vvt}k~mRqbQ~tZ\r~j~fMC`rkKpj~}p̿ohs4'wsxyPn\{zEb]lpvme]xrlr|Hj_sghuZym{?Zhc]Ea^if|lijst{nz&Rvwvtrurp[UbqLx{]n~h_boUoMPHNwMcyqx}\zhm~X{be{anl~hvlnq_z4V_kzl̏cxonTph]htcjYt`h~lS|E]nx]Ɔ~}okkxOQmsGp[^mDqbyl~dpGӎtɭlVpvd}vwtiyq~rq`PopM`LY|nxRwo|[txbGJkyIekdFvHw}k'owxi<tjO'|uodT|q{wfo]tw|_trlM~zQnU_LlqR~٪Seq9ew|v_qflb}[~|zWYqXIXyjsljN{efxSQߣtt}ie}xwPhyW]{|B{iW|K{r_zLngqd|ftP`_f~Zri`qNAwdiz|~xqZGTuGr}vs^qWRzJywb{Rv|n}ImeSB^~Mwfx|J[xxu|`}_pPiiP|I{{gtWr9x~txdxrsgƕy}RW@e~~u`S{f_}Vztz[VY_mm_hrvqwchkkAc{u~qx|eSmz;u]tmaZrxdijrlhSkWHx|QczobBOhypLTtkvfsL[qVqtL`WqQ\cibL:^U]Xݮk;h`Nh_|msaegn{[mQ,RUpnV<xdyw^Vgubwqy^;~ppvWty`s{ls)nbum^p{p|[k?yy{wh}^HoWXb{|{~w[{XqHZorLeltC\aAə_Izfkpsy_w^\5o}zzf~cpidk~yx^evhuno[[m{WZgson~~KJ,{RĠi|X|botw2e\ljszZ~yeyU{}tmfjxZNlZcwu^{ojx{}|qrs