{qqrPvp^~zIWjwvWia}pdlWEYmgN}deeYRT9Sg{psGtFhbv_r|'uqruT[DiqWprrKvVTjy6{jw`wkbr\hNyt*`zetnzuX2XnNq[b>;iy{viooyzrosbeuzdTI}okn9Qu|oo{wvjTX}^I[lpPNxQn^kWo\KXUUDc_PWckoDaLeu˄D]yYlZ{1xrZz]X?pvgBzhtxx`dTA=kfbszf|{mSjpe3q~Su|pEqCwTg\|m4U_pzYybmq\F@pzm~{tCzzjx+{wjhlJ`nfC_CP[qufrH^f|Y,ibezintqpWddTzXnwzlptJPuytrf\aaGΘ<ajX`\rkq`\zbZK|ytV~uzqsst{tjm|YMoltBy6tt|tOprqIf`zsclvo~^JwzeNLmux}pAfnyEjehpe}c`#}Ho^oY_Yjcg~e|_rh2~j_}9dHwP[zrrsq`xg|\ucMz}glnbYQor`\KpvvzT|tWXKfoif6mje>Ntg^?hzvs5fwV}l?Sy}kkq}bLP{`ooI}4pnwdRNZgzQV}>j}ogBYRC{C}WPn}urzdmuGcQq{tKbiywb{oeZ`krd{gQhw^Q\Iy^S|Ttw~dfs[V~cR}d[ҍj@p՝uwVT^{BYfWIpTuRbnU]j~zmntaj~XYuOldUV[svomQT<pGk}hdhxxyyxMDPTRrots~=jzz'gU?mz{K|jvcQ:t9vr|GKeBk|uY\s_y|jZ7}_RyCNdvmzymhatjmn~m&ZGwbgf>N=â7yI\`&qQsb{@w|R`k|zbv{SJ+5tHvsjgzOmhG4.Zox+BivhY|owy|zkirdOTt9u_{~mWZEp}x^_xjJiTxDmƣj=|J{qpziwnv|nI<geso^p1xspiY[~~uzKSN]hf5_Z9`]vggXqNŊl|GxjX[mFxgVnXX~_4Ni`psZszyaOToxtUuGsnqvlď6~x.jxqzrw}wlo~MsѾanq{mi}jUznT>Zh^laq{lj@BWowq\xh_MpywufVZVX^RnVWrowi}Ye~ybf[q^^[eb{p_lh^Vwvx6Ygv{QrYNgkuwhoSlcUXthgm[WtN:]WT}q~t`l[{vc\|woYhz}gMLCgRoxxfy]3w\jwCny_ׅpsnqcE}}SsKrWafeOenu\_rԊr~ypYvT]c~}|dw={uuoyotjo~mRpnm9N|4zo`~itssKzKzIr^wkuxs_uOn^kLr~Z]lTx:tPj9WPvwszwNzRxqjKPHZJG}^h}t`\~ayhTz^ho&jUnNiPgwytYrrY`wmhualtI]|zhm|qzaWmnxfsf[AsySZ7mhHi]c]Xkkt}4^_kU}}uzNuq6eiJ.uXJnd|,ngˍqqngXYDP}Z|}kO;GIaEH{cTwhn{x^@yqnL_uRoqbv`i|na}syln|Xcg}ve|QvtY}j)j9s<}lyoXo~Moz}ltGYW~sxvwmtytCWPz>EuoT|Q|imzRvqZH^q}yklb[hAut_vbthiPrMtjjEjyPzVPjlszh|r|cDvhڍO׃7uY[LkbkFrwi}\lOvlf;j}oUUtuQYquj\gjt+t_oGbnig/^uWzoJҍoca͏dagxMLbpV^^||cdfGx~cx]lxH3Y{h}q~wT_͏vfvQqRrXvl^R{wN{y`ysYHlkOnj^JWO|rypHKtfuey~oex~{RkR{|Qr{x|KI|yRrszzjrw|ZjKWsa{|{\QMykzMgg~gI}|Hyy`@|wrwS~}rxcXHukoZUp}iɋIPvjXu[nxvnRnu_yh`2s>O_e|BtzeQp:~V_miUlltauu^uLkKWrtlKAh~fcRn_]~xfwUD{kco[wyfDxR|}_iwr{v|zcNhrySvcy{\tz~zn`mu*fpjbxaǙ^YE]Ptr(_a[xmOj|Bp~gRXBfY;it`v}~dpkqop:xkbl[xcxvlmQk{:tjR`ecSqIo`q`NrhHpSzUm?txgOQ8{Tkmpo[l\bGs{*uhjMuaM+qpeE~Y]?hZd]f{;}zrjN}T[zւwE1Ryvxp=MhwDJ=UP|H4st{LlyOvvyip9mhw^Wh}j]zΥcňȝpzoXyoo}tawUht^ox}zpfn|yjAuaz{e_hh`vh2O}j}s}{IWmma?IznSnnxhP{ox:rvQmR^gcwiWjyg^o@zEtf|{gWZ~rkqgZYixxthBpu{lZ`[vrVZwe\lse~opxw{~sdy_gzMvlOqqMHOn|PLvvnpdxQzE|m~UIDgY[u~t~dncz}b|{lsNe2u}iwgъgpm{24yyfivzsXsou|`/Wqu~nheaL}ifV?^Stmynp}dv\i]cS{vvSjo~gc]]P|kVk|D}Cev|gZa^ZZm\QVFoyb|liu}zrplexwrOnT{rC|FqV}XilOU{hoxxpo\ekivTRf~aSl^2]vqK@Qu]O}uhgp}fhNwoAxD{JI|=UvvlXhq$iqmxVl#;y|>_JEE[Ri:|dvjRwr`n`L]ql^GniawmUdi^YZwX~jbOPot0WuU]myZRh|oztVGgx|p`xz^q?Xb}cj}>{mdkylif}XPL|s}Po\.y~_zn[3}mSjqzyllwYukl_|ga`}MiJmxLZdq[o|~AUmQoRyRYqRlvdoTSGybonqtu~Ymwwrk=zknC|qt_*cYis}Uw~X{pZoopg~futwuuppmґpe}gUpkliztKyb_c}pi_yY}mtkCswhi`Wjt{-mqryg^N9|_{ed^T_nLm`e{fcluvy`~mnrXih$vNvKVuf]t^avaJSQwQypqgBWc,uPgkVyiB{iYp~emyZ1IqD}}vp|`Ztia{^s}w{P_gbvDPByxh{\Et|r\z:{\~CbLhbjTuZy}ws\pL}WXz~[~4^s|dK~ibp|dGhwq{fezVrn@~}ow8ZMx]gIjcnlIdyczqp`eBZsbcHYRI;{|P`rVr`|XvzzlzltrXb|_i`x]_f^cO\gxGzvmrIw@blmejxWhm]tL}mvDVV_oC^^hX}k}z{d[tzx}tsDbH~_zzlNpZP[VvyrkocY[glqsj|lYqmiWdk1wTnO\w~ƛaA>ZVXj{sYdTkN/skpKttyaG[p-{oGo|IcL{}*aWQfz^umtLs~XSt{~]U^yM~Rvnki{d=|nksebXuT=NogjFhtwaN5i`}kZicZqib]ܛsnqW_ux_c{nWxd0?aZaitou\b}6yjdHYyrěojplVzs|vsquPI]nZ]`sixdab|km{{֏c}lnrowz~s}hBoacZmjcrfk^H~xwsjvzvM`_v^|Qfg~bu]oqzxcT^YxPnu^CmdX|nW]7|EohHlkV3ekl^[eaGeOc.8MgoVXz{rrlXcqIQxwDoXxgGrr~ajmzVyilbyxN[RH2{l|_Vrz[]SS}@\}bF`xumcNWxSĖ|~n?bwKg}]Gp_Nk_mti|zulo`\rpm]BXuvstkw]dۆpvlsyU^<RrnS~~{QXWelzs]pZ5GLS|zDlj\c[myqoF~w=Mmr~gSxcjo{]aXGwm{V}tufvZx~wrk\wg|Ts{BvF`Q}l~by~wLiX_6Z[_b@hr{vF~LnqVSqwxP~TiYtWiupOmctm~mtIx\[K~mwFeR}otqlgwaw~zb^oyrvbX:sq<nGaz{A}Gkwl|A{HzrmSY~OLSKdNztcy@mLmsNzQukbmjtk9iYIXFriz_}qrIgbV`ch_rRh;W~b~|giUCghJTTEochBmBnT}]mWf|jHiumazzien*rbyoEAciurlbjZ1~m`qidXY]wGLvy`N[DǩsfƍXcirbr{Rfq>SlAJs9ZwO^zqhLz}q@t~\`Wm<dPhpKAd~agrj9sqdCXhztVVZOyxb^MrUX[{pitZ^uuczERlpE\tqExy^;lv_m^pbL[_Acik[*Soqu"gZnd@6syi`n|``_|l[}_gjjhOxkrnc|nnw~pxhuxh_{XVReQv\lcKv_HeAFqpoxyxrqKi\}}cT`n2#qskkiT~|9UazCoCi~]Z]z{9FIYguMLnpfRjFoVzvvqTPqmCjavn8UqeX}a_9umeoTihevHXSWp^giWpRunt~_wwYzwL^]kXpo`uq_AfPzl}=oajizG^x>pw^fyirlZh\P`jtvdtiwg|Y]@QMYSldOmv`itoq~qqCAkdeіČvi=a]uFtmXsunuctScyqe[_iu[u~VkP<Cvc{sxf}w`Z`_}nitGrÙmR{ylauHu_qQaTHmgZrtz}pwh[`lun{foo{p{XjV{atfMQgM<Y[gbt[_{RWg_shXzmxscR{fljNRJ}gZ_slo1ymtFb[jtPubdWyq[A|I{jZ{OqlvyZ}{jorp}n^bMXdxtV is_tj>vd+JrAOXyЇ]neoqyiGv|[FY}hYyrWrOhhLXPDXeqcknV]G-V{jfjgtqa]R{_~kvUbyIu@ahukkzxfhfyflnWVwwcVo]}4sqTGhgisAhzYltY}hv+dclZ]aqiY,_ppn\^{Y+ymsrredzINarr~IyOr\{}^itzgsagoeyPsTE?xwqkxSttCv}i}XDJoFd}byuZuqtzh=h\vrdi?A=ZOnR_tckosapxtlFny_fjr^kPldu\vjV*jhuIPe~vl]xrY@qbgkw~yd?wtvm[#f\x9a~z{GNjPr8gdZUhMuLlQklLan\sn\Vanh^v|nemruQ}Dbq_N^gi]nzeSqA`wMoefhυ{i|ӎmUKZxieLr\6{WOUU=Zyl]bimuaVH,dtvOs2[nAl;l`foplSKX,UG{pbh{zefmwj^v5n;qf|}$y{~tpyY{SaVhTc8w_gUCzukh]`hnȓ\aRqrrv\qzsnQm^KT`uorg~e{ic`WJxYajxpZ}ugc`r~ZR=ÊaXr]~m89Yui}{zubYcwdtwySaoKnudrtRWRɈgcnRĄ`R[j1vQbaoazmOYcgK4virvS;=`nyKolSwMks{npzxZkpxyfk}zqClmkgjNmPU)@;q{Pch|eml6UomSl_tFaG]qiizeh~|Excgslgc{rqyQqhYehUrUaSr^WmA`{utv|vAoqwjasmlyxylmrEC\u]=zkg{henbn_tBlWYrUnua}iD~xqfpJVa{qde]blukxRlvXzgopRm7Byltw~wjjqO[tgvdWjt]x|_|:ɋ\asodpO~Xh1\xO}k?6ritwcoJa`HWm{bwr=WtedEuV|q|crgtxcTS}vt[w}|teG|wDxpQetlr\\ezwm{9hj<BjVzu\dz`qvy_^|AvzYRot~Xl{<avhpqWwqdow8{uA~Bk~eG{SnIb_|Lp\qy|yZd`zcxxe}Cohzy_\qut}de]Zqĩ}qowwolp|uaR8Cx{]moz~@e}{SuhaapcupOJ/XqvEr^_liSdzc|nxi}|AuywdXixYl^N3afafsTppl=qv[oxdt2fqpcs\utkm_lCt(qkxB^erhq\N~zccfsz{f{ltz8[o[jZ9]Qmg5fpTZu{]87/dbX_Wun|{vQthnFti_Z|v}rokpz|Qs^[t}}Z>zBawb=kkfoL}bqbthuNZfriA`Mnqmx~fEp[rykYc`uMqz`loeLzZub^RvHlVsun`XXo{a|jazna`BWkYcynrƠZllSrkW0+çTO[p{baWcss}c[ittgan{_[gj[\SᆬEzKeu^XotPUFLosrhn`}tmd?fUIyL}X}f`=\ap5{2Q[~hmgq}pNsCy}La]Ky|z1[Jkr1raveQr]yMWscuU`nqiegf~{VivlnwZS\d;[-monndm]5asS;ZnzeqkXƙ<I{jrAtyfnrMic\}u]nxpIqYPlh~tvwVRLuYm`unFmMlfmwkuuEQ~Of[]zzryEo?<qjRd9U~Nwhhi[yqt\&rjvct^hlg[iWj^zsekn[~FS`NOu[gfz@?TVu[fqu/fnzKnkejzsqehc{~Ypyspp~MjzdgSTl]voyaYcxe`cjmT]oWnuZY]W{yt_~o~tlygqRc@LDg\vqbT<fdlgoq`|zYtwO]^\wp{V5He]8UcCmr~S}}|nrfbp3pvcy`pY~~LR[Nx@X)vlVRoiPrV}eN]^}3kopc}SjpdgqgwjYZkUqsmsf|E~`|skjbss^`[zQgr^phRSpWzbf`NvLeuZo\|aMr_<jRMOS}dvOs`O=mUluWIsiQz@O_}j`br.gbqcoqgdMveMpid\XJt$\MsigN|<~Sojcs<G|a8H_pbuucsL~Ewd{y[A{jrNt{|rknicZb}~yt|l;qp|uhlciu~~lNzM4=m2o|MuZahdk}9E8bRxzb\dvrU|pn!Zpv^D}xcPttzfx=D<`rUsFl`̏7|u}txc_j]tW~pv`IZryztVfdg^r0[ohku^baj`rm_Yo[\ihiUsEw`nusL|NWc`}^g_Wcgkex^aٗrphWREdwf_uoQk]ztppUry}Fy~xjgn~:jmn\{[f}~ʇsk`ztjKosvn|{w3~g>Y}J^zka~rPZA|?YG_zsqrn`L\b~CZonZtRh|i\ygv}f6:~Jg@nrRjt{q^wVNM~p`ZR7xy7oyk}}`iwq3]d|uqU~rcufJopj|nmہ8iwFv~7RtRqk|us~[~ba{o#lmU_6nd^mNzqgfJ~OsQ{k~FGwlgiuwzGlvTz^ȌOusjwusqIlJfVximN{f`KxUapfaZh̨[}LOq`\Vm:F~pwjQW\Rj'iw`r{VF~vRVJW`Irhxy0O^irpuSYphiuppmv[̧drzdc}gɦL{qt(^rlfy]Qjr<veFQtZnvymݕhOWSqYktOf{xljPkl]d{ekPPu^z_mtX~WRjurQud iJypsxc,xUrjOpj~L|b^Q~z{v`wUoqdchKTwsla}XxLtwhSwjlq|x7hVmDjC_dq{rtuz`ewA|nUwgri\i{urivUu(lVhvyu|ot|rw!|vYee_~`xsFxaO`SW`otho{|Аa?zWoeJ[Ƙzc}s~Qu^nhphc^Kw~NcjyfbU[Jw^~eutTzV|W|J:Yoqwx|TIo>XivUdnŊeszucgcm`\GgH{z~mf`r_lbSSyoH,vVgyzrwIy{rVtt|t]ȕkM?qmV{^gHozbTS\el^rp`slkOnhrC{cnrr>kZvxhej;bWHSxeBprD3\ZTuLh}e|yw6scn}gyeWtx]qXv|v9pmrM_utsyi\5z<]{{uZ~n,~qhduvl]JHwjh}bkeejdIWnbI|xyH{~WUNtxuUpUry}fBp{ojAS]Gŕn_Y]ke{i\xn_B{sVmbGMvW|Ti]sv`lm6iuQ]hzjoSyiovejiqrCuxpNlojJyndcS{z=^gPXerviSvr|hmlʩovwp^@~YVZwtIEqGya]:mkEE{WyWNbvoNn\2Àvx{ZbRx^~j5fb~vuR}^owjwVsWat}twfj{ko{|urw|stWu{k~jmcYh]pUhnJlrdt`AEmrn1r}|`\RygIhovPrlz\Ӯub_dfnz`8zzrrHAkeTrpsRpRxpnXDSVb_?xP4Mp{ayuv{TtxQrdtbTstu\OpwQxmG7Btzkg}zrf3Im_grNtU{NCMqqh_shQTw[Z}kX{Q8\e^qguqltFbxSYvkouwmtwq[uc|~k^ZTivvn[Sk\qytvs6vC~klwwJjyvJmFTyC3p_es?Z]lvnkWwemaY_g`]|Xr}LS{pːuab˝\mkfoenfaSz{qzZlX}3j>TijQZ5zwbeJyr^rlyC[}|~uc7O|sXi~3en`mdd}ykWerv@^VdhcYLvk`UA{noh}b\pqnu|Fjj{kf\OyxPXE\Lq~\m=m?f~uK\agUzWsIkk\jWkuvm^e]xikGltzr]l~wxlj{Kg}h}PbKBmZe}cdh}X8UQ>p]av~GdxpKxiw\~yqxfpDZflmruvqn~HUĀks_~bfnatEKMwK{o~u]so-o^}wyRk\Uu[6̆7ghp0jYe|nEU_lgtZY| |;p\DkjuexvJ_nYp}uetZxr|ia_LmMT@k]aKpjQXqib\dnzi{_EZ]bKWnMrVZHRyCiVf|kcacpuFcpfU\Np{|Lym{!g`vsp7wkgu}zXVj_oiuyNph[~wdJ[tx~fIRhSw^o|zyzidGCqz]\H\HkWdYoWVi|NV^UuO`nnxNwZcmVvomaiAzrSxKctyh_cj};x6kvdcI\J}6fd9y_RccpcqhW{txIzqLnGbjzy_.wkv}hcCW!aynw{}fPe5WsĂuq>ʔ~Hvwv=mhgXvlGw<qFqf~fK;kg`FO_zf{~]ZNCmdcrdq?6|V{_~am~\jfWRnv^Tbn{]`:X~vd~]zt|RazQtrTjwbgo~z~XwDwEtxl?ah]okrfxXzx6h|uQ_`r\Sjlz0wWmj|a~}ut~qhQJl|fz~\[t~j|RiDv{gfQnvcRvkm`os;lawpbuhwr\bRd`G[xsuaRZxxgxJN?\DVLmAw:9~q:}xuoQKcԊ}oVxebk=>jz`lwY[uqkywybokq~~k{DR`jXPbru]TAdyrW[\}p^?{TnwuAgi@uXrDg4^QyyuZChf}Jk{banp^=S{Tp<wNzb~qG^~Vl[~k}^1ePrKmpNUgZmczQ`{yqeUwx}`bXUEm}xeNp`p^ZomمoLneYV`zklOL|pesdl~mtSwg`mbbyqOv|o;y`vw\qPjuxZt>~XZ^F[}IWo_i_txXlhw[f\^k_pkYWVK{~zm[{l~W`{RLrmK\X.vt|c[lx@tmd][^:v{|z^sbZrxsNKW]zuBwdjOeO{|z{?͉UuOQY}gwAYdavlvdz[s~mdzVjs}2xaIji{M{LhRg]Smknj~XPiViupFhaujj~WRrjuwKno~`~tsWew`eB*tMp~]|r\bB|{xˋ^~{ilmixt_RzvowZBdT`qZrb`vfvhu]Lya_yWXYddecVmQtYUjyXmYYbeOMgb^3Ob~Pyt`xblyxpjgR{s_~clZ-Vrz{_pc:okiiUp\t6xgup`ykp}cw{g^hheWk~_sdi{r]|kpucsk{e~L`sayfvg>rFt<oOP|VxrpX]zI|X@Qaej}Egmv~aZiwqexmxh{2N}oYla[n_igiww_iim{|guWuiNfX{fRl{u~p1k{^f{R}K~ss*otzZmpid:{`~uoOoZ.qpZeke]PU{VyLPx~|YK[NkQc`ldGvcxu[k\vvee]XVrvzqʅ\UjospN|gsJe~ttou^\_N~yjzoGo{/{s@fdWGmH`oM`CsXP`hsa"ESTwht4\P^]0lukY|gaDW^}~z]_sU_hsnju_r\TeKh~pj`zщW~fPow\hw|~7_XzwdaG_@kaQFfBG`_Us4pzurty~?z|eeoTu{UyvVxQUp[zyĉRtk~e[k8pATu6nsp}xlcahF<j?uIX8qJkt`cXiwtu~]kc\gpպkqN\^zHeD`juh=wUR}ov[sfvYUlPr}dejf}ml}YfGev[y/irwSzZUHs^|Ctpott@[V}dxTnPM_^jUYeWmqYLnfYh>\jxgu}oHEO2eViZgGbPohuiz`\]lXi_n~|~ZG`iaxvr[ytCZdlAotuα|n]FORypUrl|{sEtsyq{{rFUiax8]k_sg[3mr{?]x{RMabefkloisrnZąyzYOl|atCl}noC~Wruqbp}cv|~{dsmö^{~~T~H}v]C~.~;ws[}[vAWlfKw]JnZt}s|J}Xfreervzu?[vpvdIsc\rx{LGlxiWVsxpy~kleFiQjtq|sW]yhntdkva}q`ms}hkw|Z}z|oqBnrwcjS6lYygeh{a]]g\sX|}TsyuZVnwuz}_vr~]?yZFi:w<uIpZ}\~gQgdgfkyylN[wdxoulml]|\pw-Z`PQbrypskHx^SX}kpi{fXw\d}`xyp:}zMjŃrUi{kx^^mpGahasdl"wfugY|pf{ty_kMvnhui[~cUWʓ=eX`?[UZy|kgdo~~^W`tvIuxjc_ihaY|jcLs}a~mRYU~q{e|@vibEZ#dDgU:KJdf}tLtuIilZtnTeу{~yW{I_apNEgqoTvKZ^:ZtFc]ijc{5y\jgbepunheZcezunVKoxrbmSnv`gUuMibmdW{xvxJu_]k{YBzywJRT~Yvor\x`Uxutdg\N8oTqxGz?<qrsUjBK/SeK|X}`'v}bopapepyexEnt{sT^nuwp~fx{tYxYTmblsx?Fk:V:gJ~o@ɲo[k~gf{xNnRL]c^`}rHexkFfZyogxt|kpVpbrrrHkḤPrxo]tTpAXUSmcqtt[jsWn|Cm[rwoqlJ^byVYrh_sy`{3'Var^xzpthW]sy}v{x|f}T~Fwcbsapoomij=t_Q`~WelyqT|D|d|h}nsrWZx|dMҒNlu\Xr(b7pxEfUj]{z}k}|NO}kxWXYdX|b}ulf+j`uhn]uRuz<ixorz|VrrmzEdmfygs]remhqw{ue7EF}jt8crsmHbrj|ƨfj{wm5^ojD5b8l2exsNre|LkiwWwFtbt~{xjEetXiUib2r\D_fV_VX1mrTefkmzts_ZhxdxmwxqfvjZ5fq`qAyvk}SznPZwISu^ft\m5nZ|lbUspmRbPk}wZh}qi{vk`cWXXq9TytSǕUQcxlOrsXSP{s{skuUYj~lhQespxNX~`WuyQZnne]XuW~m|kxseYdhA\aiYgjbybry}LPlPlprPygTfjJnqfj\n`X`m|gYkYb}rc9tqf_~jvsSnycwxg^t}vhxy`mwTtgfazoqGDvfĚptEzz^vlSiqKoFTWYrrldIwmz_~[x}n~Rs9oz~eas[tȅ^yNwofgQyT|myxvqGQQX{_w{yplXzRarnWDy[m|}~yymWv{jɠgnp[_VT{]\mwt1trfn'Od@|}mazqfskdrQu?z}e~~e_xHkYmaEp^o\_q}FCv`:p_Sncv_v}`diesug[M\zh_s||o]qDo[}s٧Mr}cvInb?g}kcT?~I~W{{gSxw]g_xvikD{zX^k*T}0w|t~xxk\tj[Ăh<TPTsVΏbSl_P\S_eoShl@ofShiO_m|mnGg]RRb_q|~xcgRioTP^th`}^a~LqzweQP}mV}hP+s?ufsG{KL\P~c`nOT`mO[af;ge~EZpub~IndkcRUZb}GzhxwvmXtbHtTdwcrubTf^yhcWWDn|RrtkY~Q{q[[~v__izTgpZgbe|p:fjnszNovl}biin{e~3\8KrpXl5`٭dd[upjb\rEl8b|_{yn}_amWleMuғUau_Tias:M}Tj`\gtwwzSYkjjv\uoUklVm?xhhqw`8bcinojy_}x0sZdS\pyfnqit}]}tiFh\;vq?Q\Z{~zw.~PLrsawlbl_xUm|M{u{ZbgjkNnStZzXvtoNy{~PIUStnszFFEfS\ɞARVhhsdcRYdlylS7isqnz{duY|mb^iNFdooIpoh|jqq0DwBgq\K`QenKcdEcek~rym^Eio[[a$\_Et~gvYnqc~{tw`vmharxHkbSz^e6b~f{`^RvlcdĉmA]VuxpZznweZ{dlw_Wzozfu}XnbSxs{vTar7kpygXv=qkSx%wK|1K2uWvb(@v`yFz|sub`a~fx_om|lzZhriR||Qz\֒h|LfU^v]^bqMZ9VfRFsQo}ùr\qot`pV{kw\swg~~~Im]]PtgpkylarsfJ]smGy~}e{yjn}N`f[LoetlVl}_hTgoX}{aYsrf_qonv}CnuO{}}{rhe|[JAycp~zl}Taƌzw{zbymp}h@rs[qpyi|hju&zuIt\`uWQ4SmaO]qlPna]rutyPaW}ϝ|Z`@Jjqw_vdritj^}mEVxTxcYscUvgavmof:eUInvx/h``yfrpzmtklyrjjTvkpavLravMgpignYYvuUZdVv[?|qJgBjJmDxTf~{`9X]sÙq~R{zXvfogtqlH~hlSB|S~`}crqGZYujʀpnwzhg:hgjuxLuthBv[ro~wAyum^rxmpx[tNLzecjtjpmS}do]mq~-|b9YYzanw_INzzv~Ẕlj¦d[}DaWSicw9wky]o}i@bmX@=v{ndnjrhR7jS~SVf\|zMet`{ietuvqa9}}RgGk6C^VpsyFLzNNnQrDkudkxt{BkZ]O/vit\ysf|{gel_q}xsXVj`m`pq~p;(jIkgb\myu[j}yw{cU_~}c~NeuKs[OAUw/YOC}sz<|hk~wy`phpLn\Mqh{rklCm|}urLXBpj=fy6rnmtk]fWclq{HQ}ojgVldn@hbYtu}fojcYR_FT~w9d~wo[tkDWMumqKufrzifsy,pnY-]evim`uplfnxYZsoG~Wp\Rs?IfnHbz~eqe~iis7Ps=b^C{RjzVIu;DP{^8pPr~~wxqg_kdj`hmx;]vitOx{`dqd}]m|Yr|nZxepvJ|Y(7p`wmo^5Xl`Ś3lds~{n[|rBXHlfYhLst"muUZi<K^jxloduX^qIzb]]zK+t|vqwUxx>z~~pfsi|iybaN{^o@v@_d@nL|{PquWd^_RzszpnzDTjj_Lh}oorW]otLb}}s}VWb|h`~Bqrrss?nOHp_c{L8~}n}aql{tj9DjsnF~ruf]~}apEVw;Xd`nq|`[n}yY7^oexor7OR`{vqnI_yyaPH?g<hpDVO`zyh{QMy^e|o6znsxx~[{nk[{usmmqIBwpRvoohskcg[i~^]lU]fy}~`u`b6kf|QP|MLZd`imMkeNdL@ys,rqs{Fojp:_w~axKM\d]Yzvu~WNkuebr}i\^lco^z{AJZrzqp{p~WofJ~|RjasV`Lfedw{i]rTw]xfmyh~|]eZYMpgtytpvMxn\͂G}qcgi,a{_PdlUylq{yE|Q}Y[[vz|s`yg|vpyK[yt{suuSYjiRhWY|jTzwZsenZv80vyuw=lw^q~vZړOovncp}uYVbSjQth]ehce r[eV{XC`ZyyJ`cMlvie[zv]EzcWCft;ObC|r\x6hrT}1htYJqp:nuY~ya}eimdoJwSpbcHO~jQkphoS\nhjuq{iMbNUlRjtptTL[t[yzcDUli8rfjpnRWljnzcr`f\qzWwbxnIo]`tbr_vh^{o?`NkdiodzIFyO_vCafR^hãodq\|\hulXz]|UX{Oc\auP|A}t1Xiyynr~tuUS]ZuR`;r}\jf~g_jn]bcpdqiY5ScLZaZnPscW˅]rZhoz\LUl<`bfwkQyp4U<ĩ{W}vfEL_p>{|vu~qY~LNgjok|uahu}w<[jZgwdUj[h{nhgQlIcoyk`vw`toF[v7fp[f~dxgns}'KEplǒWvqh_]ZUz\`YWqv]qY-rxSd\}0VXvyYmoxthYqTZiehX]exjrqvz]wcZxoiteYsE{yBE]N2zTtQihW{ulbMvsYn`pLumwuqGp@TmsN~ŗXnb[yzR]krLmnhLsT^qLqy\shvSderpw\[\}KxupbEm{|kIgGekƈdaQX{q6Ot{y`sbv_[Zftc}{]y{[azjSs;^`rYp{~dFgqj|]|ms{PWfYyK2zvik|u[lvjVZ̄erxrM\vcp}{giˉ{,zrYr\cw`hsidGd+fl`JWis|\xx3u~JKfWU}UNpvlruDUWrvj^avYeGmS[rrky^qmzmh_iOi\]s;`bscUqf#gUrChb_zkWY}mwcmTI[z`koa[YeriasYPyQsfwɌymMMY(V1}m{r_OLysPz;v|fn}O@i[zz~XkuYƕeowFgmrr\NlSLflPeguy_X>T{pR{[lgtF4o^~AM}aRmt}WveV|JXhqqk:LkOx_NitzXmpzNnwnmyeYnb~mebvGU0KuZYWMz}_}ml]hz]p_tahf`SV(.~RVkvp~sz]AkU{MYwy:htFΒEyBh{\pwP_[tSc`Gpg`piF}[Igryr|pgJw\hFxdUfK~LMvp@Vp}coKf{_BaurQkhjxbf{g>Yg@lGtsq]Bj}cKQjVzw;z6yng+ln(a~e~xQtsxQ{L'atVo~Zedtu<vsgfv29vunR|nt|ΗlrhxQt~|pthRjohWnstf{_;Ln\~tx]i`'~Hr{|tYzsesgf^nozp`{7?`dcm`\}zgzifvHevdePzfx`_xlsluUS}jL{[v;zsexThWctv}ZiSptAvXsRIfMkER~YjKqGcLDy2CTS~|[Pafscy-a[uoIBgVqnqC`qlG0lm\cLiw|[\zbZmadĕzrSrkzg:{q_mDh~pY}nVutYua[?7tpKX~xgQ_RyUr|0RuAZf_cxzx@lcXrnoo~uoD]AQW\T]Ty`EVm*uK_Wj~rld:ltqujkhJoYX|ykHiezbgxKJff~qgptazM{x=kJpnV`p|`R|m_=_}aimzt}J#zWKkveNyja_}vku<zhdhosminWocSk}k}zhtpbfsur9Ő|`}rd{qh|pzaMKzTrV|msi{x|OXs~x[rcib}{~Gm~gtXVkcz]xxwU~R|_t^Fz5pju{\{>mtrlifZn|{^g=X|PpNxuD{uhxR}lp^v[lVkiyyu@y[q{d^|Vxsfuy}kkZevR~wMl\4[{li~hsbtwi~fzZd?`I5YWZq\x>`xnf#Bd|iZZU[lk`jnOwoabetbku?}{las}~slayW{Hqwy\xbLdf@jKdajl`pTjEusk]S^wBMTw\6eZ_j[EyWUkVq}rKzxqwprN^ntsjmigagsTrYwB׆{Yv{g~lfy[iW[zopfv|jLwbg}TaOsw;|t|mYrzj^qFqApY|lKmn~]uN~|gEo~rTFb5pnPZmHvnuR\lRym7^liwscZof{`W]LN~~ukQ=zrqPzjtJWb^nKB3cGmtuxG}h[p_|nJd/MYxj{wrux5dgVlzzLOlpsF}cXj|amvgGlavwX~QX\zFpk^{kXvyusr\3_{IOcM_uxbepdIm{vXlfTxxq~{fllv[-YU|\\zpZkPTaL{gkgnpVR³{lZ7keatfgBvhR`hGiWtqPpvgwmpjumboyeVilYcQh|Sp+8bTjz{pAA}keJlEtzqDsogDImUrL4ae[{bȒ^VrxlSqnwWs}[k^zs=UurtUVwgfjnOOb_XWZloss]lwj^s{wrF{tq3e`jo[sObp{`Q}~The}pcYgq/]nq`Zghf{z{MЦO<M5gvbx3ktcwtx`ipqƌ1miwMoe[cj[9su_\]NclWf||tN/vmYHmnWcQ_qJq~bL~~x^`H}`VCVm]dur]/xqNun{YbkmD`c~Tygwixaq<Zm~vxdfbjm)sMq!uyuns\VyyeOnxuvs}]rzzX~{wvhj]nrieW`wUk}ftpnvs~MY8a1ZumQxbv[@[Ry}yijamxnRdsQu{sp^`]gqo2cz_]rmo{]]rq_UΆcvhqCnjybstz~jKr^[cHnjowxif^]VVuKIu]w$Bta`dUZsgA[[~q[oqPlygV\Mr^yp_yw}ZNyiW]^GÜqz[dQxN^}wgo{`Xrj}vnhvZ̓\l}Z6~Pay{wr^\Rmh~U|z@u`^^jpibs^v[L~q`D+cngSwodywjbbzvwmvop~|at]r{bg_tE^X}gXt[it;~MmyGfpvwtOc_Zn`Je}]bXnB^ČpsnOqrlobiYUe_bvTu̝`pWYpUzopcni\saLwYoU{}ifOXq|mfbinUktcz|vaQOwxww`HskxTcm[ovmbyiғi~zexatoIUVvfcjthpTQGNom^BK~-[snbgaUqsxs\tqQ@_wtfQ}[V~cwkwb^ibzX[gbKցwWl4e[bqj{=~yrv|QpzVuZz{~b}ghMa\yL`^k[fdy|laggmMRu*t{rAazrupn}Gm^pimbie_t[ml|azxědoZ|UORY}f[ypWbҠNmcvqntbgwMGndzjbrne]cytzQtyr]ElGl]w<Dzy|,j_eYdzwVcQvyEim]nixwfsXW`xHFݎa\krn`ilp\qjqunnh`njt^}cy8V{[yyfqwg{6ngtLSe]M;cypl<~9usgiPRQКpqUpylsq\u{r|DjY|^meTnCeftlVpKoXmtnkpDJoiwaYcPwT?CGh}p\vP|AE\osxwawvwKxR`||_v{ijujs]hL>k}s`TwMA"ar\ro`Huy]G`y\Yr^b{oetSxWquer`UmXzPsxqmV\lznq}[䧌mzOzg}|v\/{aiX@cmzľ_ahJ]svlzEyamo}DsdSvrzv]DYmz^u|bfozov}Ȉ~m]VamynXvWzmlmO]:tWy{RvTtl}Ooq\XrxNhk\mk{ygiijv}GavʮhkhqVucs{miglGqje9h>wrVMCBxfKrvzj[uLy[aZ`xcgPmtOpJilg`mSEMbffsy8l|]ttz?HOc~lycxhkq^jvjPvvovd|efUyiwy}}cprLqHF]\P}fj8ntmZ~~okhv~nh{MsoPq}Qyskt[sQgtu{~FX6xl;zkewy~vfv~lk~Ynepno{ta|[{r\ay禚jO_So^d}I{]aSNW]rsKg`cuP}d[;wgudksrzbs}r~iMbr|[yjomT{X!icN~w|x|]R/dekkc~|Md֎rvhN~KYr<T}ooKobVs`_hjNesvxzVxfU@\nQ^_d^i]yrXZkjb}HsmSw_VahpeujtK.Zkna|ukk:y}^Wk}~_jjzruvV4ًe|naw_XuvK}M{|j\be_>;}uT|VHuoisNsq|1]{aw_jsWeaxmckzn}qPNnt~Y}d{s}^vhht[k^}}ofxklZpKtLerds!`Xow7GizUwgkVkbq}tTXotmdYpljQX|k:Px~pxs1xxB;h6Y[^;n6}vcojsr2iZMT`wzvEuAN~Kvo~\ЄmC]m}OCp}e_^Ɵ[:V_&oxoVon9hd.{`jEl|U_|RpQzog[s<vlMpyrvvhn||izeeTiXpJnkCxdIHN{h^nZipd[skamrZne`^,vmlLyh[S7xi`^qprdweihupY0TgL[}YzU|+sy`h}fgpddHI|T[~daTo^wRsdlyAsj^%yxyTy-~wpwjzfPb}tAawihM}F\Uspcarjmqkpvwt{okpmoswnWqt{o\cOwSSzNnojkfVjQszzNah[oys~mxB_PKr{=Yh|scBc_;m~ez}c|]pg`]EZ_q|fxqeGAvPUS{M{u^t]HefNmwtu{apVnuL_x`ugfU_S`[TWj\kmxvbsr_OIVmWlp1Fydft4{rwmtjYuaXxyTakLeVed\w~}BdyY^\r~^c9jZpnhXdy9ctqetmlrh|},|yTrL|zfzmzU9s`v[<}ks2ZfR}WfhZsxWZg\dkU@jkWml[k4ԊjmMc_JN|_kXhU`etpsnjfgUsv:dhiXaQqWtit~wfkAqrsndcp>BYKzhcUtR~Jci|zcpMbQqchcnsxwtguR}9jlvxwjS{}^o|}<~`PnH}r\fH_k6tj^AzKAuWv[azrjyXkwnvy&o"q}nvFsb{iqlz\OmuE}rqnryxh7{wOAWEwj][v;|ok{kNtlKqkoD^]ZLcaix;fxDYR|uKok|V[nnY^X]k~WbMRQgqyOpxwrfYzftW}^X|sT=thTfwEo736{wlb\berp}m{[y\m}gnk{zt`euty`ayp1?^zwG<znbapt{\va`fp~vLlocpFayqkkFo|hoordS:Y]PvYtc?t0vcl\WkSozYddXqPry]g[d`rpe]rlQ~yq|]ni^8yVaj;zuoo@eEcg}~dciwk`_tAr~SkvhmwymeZ_~şnU}izgJipzЃe|QjiovG4iq`uwpb^hYAsL_W[vf\xd}{ckwdax_eXdevSf_}-EM;d]uyCoukq_NzsdmvWDk|{zyu]t=wb}qCt^xRc^Mv{<olqryr<irptskfoJS}_LvilbooYpW(spfwMggdZfnO8T9drQqu4d~DN|^la{{=eEU`qwUG~~;PlkzykTnzvoViplOUskyaywTsw`RECs[}zbuZjp\~{p[~tyox^osqtLloil}zvtjlrlq}nJWcvq\dv}xnnxgzhsp_8w3lvreokv^1]bO`bg\9~sbemndlY?py]s9urgVIa~uJi[ely-;C{pHpb~wImYvwtDmvizzM\P{kZ]M|ef_]huiSnluŲScyflhuw[~:fE_|u[V}y^>{vS¨s[i^jxsMXEoaĐs0GXvdx[hd~Fx_SgwvRUmZdOupe^yctwqZx~U[o?ttXFYGZYwY\YdN{hM^Gns^dc\o%jnk|ck[U`~EzsEvz_{{d|ddLv@tc~l|neXLz{jiE|kt~dSv0v[Mc~_Ws]YeqMk}w^r^cxhxXW{S}Igsa^WeWD\taeWpcsbgpjoosYr^qon|nuwwXik{Wt~ZF\hpWwd}KLjljzhdrmjkoltrql}er{_Zf_Y]i